/**
  ******************************************************************************
  * @file    network_data_params.c
  * @author  AST Embedded Analytics Research Platform
  * @date    2025-03-26T00:10:44+0530
  * @brief   AI Tool Automatic Code Generator for Embedded NN computing
  ******************************************************************************
  * Copyright (c) 2025 STMicroelectronics.
  * All rights reserved.
  *
  * This software is licensed under terms that can be found in the LICENSE file
  * in the root directory of this software component.
  * If no LICENSE file comes with this software, it is provided AS-IS.
  ******************************************************************************
  */

#include "network_data_params.h"


/**  Activations Section  ****************************************************/
ai_handle g_network_activations_table[1 + 2] = {
  AI_HANDLE_PTR(AI_MAGIC_MARKER),
  AI_HANDLE_PTR(NULL),
  AI_HANDLE_PTR(AI_MAGIC_MARKER),
};




/**  Weights Section  ********************************************************/
AI_ALIGNED(32)
const ai_u64 s_network_weights_array_u64[7205] = {
  0x3c41a7373eaaef0cU, 0x3eb0fd4e3bb445b3U, 0x3ed01a9c3db1fd2fU, 0x3e9ff63a3e61fa9cU,
  0xbf0a9e9b3ec19385U, 0x3f02cc973e30d99bU, 0x3c9ade4bbec6eb46U, 0xbdf6c7df3e510511U,
  0x3e47ce27bd2cb7ceU, 0x3ea0b09e3af4c91dU, 0x3e2b5a9f3e9a275dU, 0x3edc89e13ed45c53U,
  0x3ea0b94ebd77f51eU, 0x3ec2a0adbd25e933U, 0x3d0807333eb1174bU, 0x3ecc86173df4ce9cU,
  0x3e949f7abd28a57cU, 0xbdf0a6c23e9a06bcU, 0xbef50feebeaaef86U, 0xbf31eeeb3df5547eU,
  0x3ef0f090bda8de11U, 0x3d31a9d6bf3147afU, 0xbddb65523ed7736bU, 0xbe1796273e6bcda9U,
  0x3eb34607bd2c30a7U, 0x3e905c74bc82c65eU, 0x3df5c4bb3eec0d24U, 0xbf07d6bc3e509a5bU,
  0xbf54c010bee82a7fU, 0x3eeab048be568f86U, 0x3ec7259f3e39cf4aU, 0xbebe277e3eb158f1U,
  0xbf0df3bcbf09d1e7U, 0x3e2ff4b43ebb216eU, 0x3da345003dc6f5b2U, 0x3edd70833ed8d830U,
  0xbd757278bda76462U, 0xbd6a21fbbb2381a2U, 0xbdb518253dd8029dU, 0x3da42e903c2e015cU,
  0x3ea1c182bdf30578U, 0xbea3f76abd56b9eeU, 0xbe3a23eb3ec8651eU, 0xbe477f8dbc495302U,
  0x3e7f34f5bdd551baU, 0x3da3c11c3e027d47U, 0x3bd424483e60c599U, 0x3d8b06e8be5f8e50U,
  0x3e1171b53d84bae1U, 0x3d401694bd376ec8U, 0x3c556d603e3e2cd2U, 0xbdae0530be6a803fU,
  0x3e41864abe24b013U, 0xbde4c11bbe08f900U, 0xbdf68ef53c968cc9U, 0x3dd842483dad88ffU,
  0x3dc93fec3cecfd6fU, 0x3d0b06323e3b6390U, 0x3e83d1f6be23c2baU, 0xbddeba30be433527U,
  0x3e0e5ce03e67333cU, 0xbc75b6893da92f5aU, 0xbd9fe5debe2aecdeU, 0xbdfbc757bf005814U,
  0x3b46341bbe6898caU, 0xbdc49a2dbe02286bU, 0xbdd99003be45a18dU, 0xbecbd2d1be71962cU,
  0x3ebc59a9bc8960a1U, 0xbe1dbd8abdc02919U, 0x3d40d2b43dcd4836U, 0xbea0a3d9bee19dafU,
  0x3e89a6663e6d08ffU, 0x3e5647903e844e69U, 0xbdde9ae1be3400c1U, 0x3b1e64d2befebf37U,
  0xbe1bdf8bbe0d62c2U, 0xbd94d10fbe9f4869U, 0x3e0ab10abe2fb3faU, 0x3ebd4637bdcab1e2U,
  0x3df560e3be8de442U, 0xbe9a1cbfbdf59240U, 0xbe622750bdba3da1U, 0xbdc082d8be214880U,
  0x3e07f655be57e4b1U, 0xbd4280fbbdbfa11cU, 0xbc88fdc13d5a87acU, 0xbe85e7a3beb6970eU,
  0xbe59ec533d392b42U, 0x3e6f444abd73de5eU, 0x3ea40122be6970f1U, 0x3ebc3ef1bcf08b1cU,
  0xbe8289a03e549fe6U, 0xbdf5fdbe3dc28c60U, 0x3d99053bbe781a7bU, 0x3eacb5c0bd829ef1U,
  0xbd50cf9cbe7a65afU, 0xbe6a1332be8dbec1U, 0xbe0ce934bec9b295U, 0xbdcdd1a4be41d7d4U,
  0x3e6efbcc3dd89c9bU, 0x3e6e49933e3a5017U, 0xbe279b943b341e5eU, 0xbdbc9205bdc6a84bU,
  0x3ea561843e3474e2U, 0x3d4e5b2a3e9fcfe3U, 0x3e150692bd22292fU, 0x3e8a363bbd4a3cd8U,
  0xbe10ca0c3e54fbccU, 0x3c1f129a3d3a9c3aU, 0x3e7ce889befc4b93U, 0x3ee3c877bd8ce78dU,
  0x3e305329be3928c7U, 0xbe627fb0be4e28fcU, 0x3d59cfc93ea8fc4fU, 0x3e8a191d3f00b8a8U,
  0x3ec52c4ebd432dd0U, 0x3e4c1ce13e8da625U, 0x3e8e74003e9ee23bU, 0x3e5ddb573ebb053eU,
  0xbdb0a02f3d161097U, 0x3d487207bd8d10f6U, 0x3ca60261bea27115U, 0xbedb1a78bd315c9aU,
  0x3e8ca81fbe1a8b77U, 0x3d342db83e4889f5U, 0x3e4e601c3e724f74U, 0x3cb974333f0f96f4U,
  0x3dd7d821be3e0b88U, 0x3d3058183e5cca20U, 0x3e2202ae3d746db3U, 0xbe6f91ca3e95a0f4U,
  0xbd680b77be3eb547U, 0xbe22606bbe8c4c0bU, 0xbe4c58babe9aaf37U, 0xbe2771a53eaa5508U,
  0x3e087d84bdb34832U, 0xbcd524983e703fe9U, 0x3daad93bbe7ecba9U, 0xbdb18e45beb31987U,
  0xbbe8c557bbf58561U, 0xbda1849bbe435cd1U, 0xbd6ed074beda2e27U, 0x3e4e79c33c5ad31fU,
  0xbca5f157be442cabU, 0xbe17cda6be92ba33U, 0x3e2e37d3bf38041fU, 0x3eac6f7fbd8fc9f8U,
  0x3eae6c0cbe0a7784U, 0x3e197b88bc9365d9U, 0xbdca3241be6d1f5dU, 0xbe87cfdcbf056ac6U,
  0x3e0379873da3c044U, 0x3e5f24ff3df1c3e5U, 0x3cf868cfbe3026f9U, 0xbe52fb3fbeafc866U,
  0x3e139e163dc838c2U, 0x3c5594743d51cb21U, 0x3e842af0bd6fb2caU, 0xbdd78223be0b68bbU,
  0xbe7e79c4bd81f8f1U, 0xbe174eebbe9c0b45U, 0xbe1e489cbe3bde90U, 0xbeaefa063e156890U,
  0x3e97c680bcb1974cU, 0xbd38db9cbe142647U, 0xbd148f4ebb5155beU, 0xbe0ad58dbdf0c3beU,
  0x3ec582503d068dacU, 0x3d9946cb3e7ef1aeU, 0x3e41d7d53d108edcU, 0xbd66d6f7be4a1845U,
  0xbe1368613db96fc1U, 0xbdef6b21be08ee95U, 0x3c82bbb63d051573U, 0xbd405a76be262eccU,
  0x3db2021f3d85f710U, 0xbde190a6bdbc3c11U, 0xbdc9c1fd3b065e8bU, 0x3d01fac8be067e85U,
  0x3d705d583d2ca004U, 0x3e62abf43db610feU, 0x3e35920e3e2a82baU, 0xbc71694cbd958a62U,
  0xbca4006bbcadf060U, 0x3d521c813dbd5085U, 0x3deced56bd9a6619U, 0x3c0cd03f3debf1dbU,
  0x3e0c6559bd200ebfU, 0xbe2162d0ba1267f2U, 0xbdb99c4e3d44f809U, 0xbd67da0abdbef2b6U,
  0x3df0eacf3d1882c9U, 0xbdc164fbbcf0a597U, 0xbe18e33c3daf19e6U, 0x3da08ce6bdaebe37U,
  0x3d8d02333e07bdefU, 0xbdaacd5dbe25b647U, 0x3e024f45be88c8cdU, 0xbe328d5bbd81e9dbU,
  0x3c6a6a8abd8566c0U, 0x3e1582ea3e1275b7U, 0x3ddc1f45bb6e0aeaU, 0xbe257e41be018508U,
  0xbe0a4a5b3e4e8301U, 0xbd246b773d0d3114U, 0x3e8091783e213fb2U, 0x3d76b5893eadd385U,
  0xbdef8e513d2562f2U, 0xbdd7d9b63e141ec4U, 0x3dc225a8bf0cc740U, 0x3de3fca43da93956U,
  0xbe8145033c051db9U, 0x3dda3d923e7b69e8U, 0xbd46a0b2bf0267e0U, 0x3df7afe13e13739eU,
  0xbe9103383e09a35eU, 0xba5c381bbd498280U, 0x3d94928ebf063cbeU, 0xbe6695d13e82ad8fU,
  0xbc80fd5b3e65623eU, 0x3e0c839a3e3f8186U, 0x3e88c329be8da022U, 0xbea71587beb5e344U,
  0xbec555ebbe1d775dU, 0x3d2bc5cbbdc56b75U, 0xbe041570be80fa34U, 0xbe9a3d27be7c4dbaU,
  0x3d9ed1dcbdb964d5U, 0xbe63db2abdad9d43U, 0xbe5a41dd3d69acf8U, 0xbe9ef9cc3e80c2bfU,
  0xbcd4e6d13e8a3a35U, 0x3e5875ebbba7ecceU, 0x3e44b67abe437171U, 0xbe94a078bf1bac9fU,
  0xbeb3ae8a3d1e8e61U, 0x3d4a44b6bdfad7caU, 0x3d68999abc97867dU, 0xbe9a3076be5bc1b0U,
  0x3ca1932bbde6583eU, 0xbe75eb49bcbba697U, 0xbe2fa7cebcd14505U, 0x3d9de9b3bde8be62U,
  0xbcb4c1343e8871bbU, 0x3e94bfe63e412042U, 0x3d97bc6e3c6e9319U, 0xbe2473febe7b2ca5U,
  0xbd2a58073d6e6002U, 0x3cd8fbeebdecd26cU, 0x3df248643c9609fcU, 0xbcb9ffb4bd23b23cU,
  0x3e05bb2a3df8d3b0U, 0x3caa7590bd95d502U, 0xbda004e3bde38b2aU, 0x3cdec326be53a000U,
  0x3dc76dd3bd4f3f21U, 0x3e01e4b7bdf29666U, 0x3e0f7ce03d967e52U, 0x3a8a7eefbd2d20feU,
  0xbd0928c1bdd40f19U, 0x38d6b574bdfb42c6U, 0xbb59cbc0bdded666U, 0x3acf9cc5be4635f4U,
  0x3d996e7d3d5acd1dU, 0x3d6ccf6dbd5e1d33U, 0x3df307703e69d629U, 0xbdd9a96cbe8898adU,
  0x3e2b67c0bce09e53U, 0xbe1c81dfbe38b9f3U, 0x3dace07bbdb32f12U, 0xbe024845bde5a2a0U,
  0xbc4207243e207467U, 0xbd6f9f0c3d72b040U, 0x3db00b9fbe17df3bU, 0xbe337fa8be93cd45U,
  0x3e5caf74bd212622U, 0x3c3500383e5f5906U, 0x3d8429b4bda27c1fU, 0xbe7d1b65bed98c51U,
  0xbd7412933e28172fU, 0xbd8a9c9d3e4fcff3U, 0x3e585210bf030d7dU, 0x3c55e2e53ea99b47U,
  0xbe6878ab3e16cc77U, 0x3dcb5a313de30946U, 0xbc6a7652bf020a69U, 0xbe6104003dc3415bU,
  0xbe9b91a53e1f929aU, 0xbd4ab7b23e5a374aU, 0x3d645905bf07e489U, 0xbf0bbe24be9a490fU,
  0x3e3e5d7a3e1ba6aaU, 0x3e085bfb3d8798b6U, 0x3d8b80a93d4ce046U, 0x3d2b43e4bdc7b651U,
  0xbeb3134bbdcac1feU, 0xbe113fd9be606076U, 0xbdf8f5643d7e64a4U, 0xbd67b45bbc784094U,
  0x3d21452ebd53cf3fU, 0xbec8a6d9be3c8538U, 0xbe5ddafc3efd7468U, 0x3b6a622a3e8cdf17U,
  0xbd83c9473e78b241U, 0x3de0b3c83c3525dbU, 0x3e3f0aee3e05a5a5U, 0xbe837019be1afe59U,
  0xbe388cdcbe68e8dbU, 0x3cd887f2be3cb54cU, 0xbd57d925bd4dd0aaU, 0xbea89a83be55793fU,
  0x3e00680abde5fdc3U, 0x3c77dbf1bd27fe62U, 0xbe14e6e23d0162fcU, 0x3cf8db6dbcc0c980U,
  0xbe1205d4bdae6409U, 0x3e6b1bca3e06cb09U, 0xbdae1f0bbe04180bU, 0xbed323e7be8494cbU,
  0x3df43a43be4890bbU, 0xbea36621beb97ee6U, 0x3afc58b53e186336U, 0xbda44908bd69b780U,
  0x3deefe253dbebe5dU, 0x3e05cbdfbcb09cbeU, 0x3e3449143e8f0474U, 0xbd4d41163c5439d3U,
  0x3d8867793e2ec028U, 0xbd26533d3d5d436cU, 0xbd84ea77bd1d13a9U, 0xbebf15a5beed7d6eU,
  0x3da497523e91794eU, 0x3d9a5b483db6c4f7U, 0x3dbac36abd9535e4U, 0x3dbfa75bbe138e72U,
  0xbe81f7bd3e520c93U, 0xbdcab33b3e1c778cU, 0x3dcf8d7dbddee446U, 0x3ef514b43eddcad1U,
  0x3e90e1ebbe0b878dU, 0xbe799c42be71e68bU, 0xbe8372243da2a55aU, 0xbed6b355be834fedU,
  0x3ddee1913e3acc85U, 0x3d85ac1e3e220533U, 0x3a9c79873ba1bd66U, 0xbd9ab987be811f97U,
  0x3df3b84b3e78acf0U, 0x3e32552d3ea6ebbfU, 0xbd4a1a59bd132b9cU, 0x3e075880bda2b629U,
  0xbe1e7efabe3322d3U, 0xbe7da9a7be89f8deU, 0xbc2fe9613cd55875U, 0x3ebca8b33e88e3d8U,
  0xbc0ceebcbebf0972U, 0xbdc679d0bea5fcadU, 0xbe3846e3be8cec93U, 0x3ecf5feb3e0c472fU,
  0x3d8a193cbecc54baU, 0xbea6e9d5be60bd9cU, 0xbe4a3310bdedccfdU, 0xbba0e71b3e3e294bU,
  0xbbb8be473dfc779dU, 0xbe5ac47fbd846230U, 0x3e3b2d23bd837154U, 0x3d8b861d3d7b6aeeU,
  0xbe892965be7ef2a5U, 0xbe34bd0ebc4aa4cfU, 0x3c42d771bcbbcec1U, 0x3cc539f5bc271f47U,
  0xbd0c0895bddf9bdbU, 0xbdc1b714be07e816U, 0x3e4e3ad53d16859cU, 0x3e5d37363ea653f2U,
  0xbdfd8e9c3de8d016U, 0x3e1fc99a3e5937b1U, 0x3e5e6933bd8fb4a8U, 0x3e7c81e6bdd26797U,
  0xbd2849313e90975eU, 0xbd9bb7bc3e15926bU, 0x3e87db40be96ec4aU, 0x3d5b37313e3a0576U,
  0x3d4a70163e963daaU, 0x3e196d313e712fd3U, 0x3d41314bbd144abcU, 0x3e2012743efcdbbdU,
  0x3e0b8a1abe8b6105U, 0xbe276b97bdc81a73U, 0xbecf5efa3b192abcU, 0xbe014da0be704dc0U,
  0xbe5ce1bcbe8870f7U, 0xbe0b90473dfc45c6U, 0xbd9bfda2be9615b1U, 0xbdfec39abeb0a617U,
  0xbde4ec88be1e5e35U, 0x3d71a3a1be146fe8U, 0xbea1cf1cbe5ca780U, 0xbee596d23dbe7b48U,
  0xbdf09f5cbcfdbabaU, 0xbe09b103bddcaf9dU, 0x3dd01b80be04817eU, 0xbe00ada3be07235cU,
  0x3e64ae25bdb5bda4U, 0xbe221d133d91c8dcU, 0xbd803dafbda9c6ddU, 0xbde425343e4f5fc3U,
  0x3e43bd8fbda69089U, 0x3c8d3ee93d9ae9d3U, 0x3e3f0b213cbba5a4U, 0x3dff052dbd4d012bU,
  0x3d9606ab3ceb97f7U, 0xbcc9dd2f3dd4b0ceU, 0xbd1ab4b8be972be6U, 0x3d00dfe73ead6433U,
  0x3ba7d7983e03cb46U, 0x3d95af69bd9f9fd4U, 0xbd930e1fbe24b7f2U, 0x3d96d3593ef8d468U,
  0x3b5dfababd9d0499U, 0x3e0e69363da41366U, 0xbd22030ebd07e7dfU, 0xbd38ccb33e526c4bU,
  0xbd0d9cde3c891f11U, 0xbcadff093e1050a0U, 0xbe1ca6b0bef50fdaU, 0x3df465143eaf3bceU,
  0xbe4a981dbd409a08U, 0xbe227b393c81947aU, 0x3d84eba2be26b862U, 0xbe3554713ec7b66dU,
  0xbe3cec50be243802U, 0xbdd7aed93d0bb4d6U, 0xbe3440bfbdbdcb59U, 0xbddf17393e4aedb0U,
  0x3e099a063ad52df8U, 0x3d8b09583dce9283U, 0xbd1bb3b5bdf55ccdU, 0xbda44c86beb17d58U,
  0xbe76f3a63c787d19U, 0x3e30cc89bd9c3405U, 0x3e73e8dfbece1712U, 0x3ea03675bf1935f3U,
  0xbe33fcd3be6baeceU, 0xbe209150bed256e8U, 0x3aa8f862bdd7eea4U, 0x3e82651fbe3146afU,
  0x3e1f32253d15769fU, 0xbe41144ebdc284e0U, 0xbe2292bf3df91159U, 0xbec65326bdf94319U,
  0x3eaf320c3d5baa96U, 0x3dc7b4723d00c3a8U, 0x3d01f4263e094156U, 0x3d2c9b31beb9cc16U,
  0xbe0e24f33da6aa68U, 0x3e3a85093d3f51e7U, 0xbd9ada53bde1a7faU, 0xbd24030fbe7a8be3U,
  0x3e2c5575bccc3c98U, 0xbe34e64cbe6ccf97U, 0xbcccc2103e2af5ceU, 0x3d9e02db3e13e986U,
  0x3ed9309ebdd81562U, 0x3df493f43dcb71c1U, 0xbd8c40acbd334c4fU, 0x3d48b505bdb839f2U,
  0x3e80edf43e48d443U, 0x3e22c8463dd3db66U, 0x3e305d9bbd5eb453U, 0xbdf70586be8bf416U,
  0x3ecf33c03e1ee4feU, 0x3ce6cc3e3e826443U, 0x3ce09ceb3ea52acfU, 0xbdcda1d53cf52d24U,
  0x3d39c1043e110a29U, 0x3e3025b7bdd4c5a1U, 0x3e38a9a5be5582a6U, 0xbe54c943be7e7f69U,
  0xbd709d08be828e25U, 0xbe171535be316cb7U, 0xbda4ab7d3e896a56U, 0xbeb9e7793d3c5e00U,
  0x3edf49723e0ac07eU, 0x3e4467b43e7f2cd6U, 0x3e8dc6f63ede90c0U, 0xbe2253aabda80bd3U,
  0xbebce82fbde3c382U, 0xbaf38708bd402420U, 0xbd3a0799be10f645U, 0xbf025371be8d9865U,
  0x3e1363f8be206bacU, 0xbea23a48bd948991U, 0xbe1120f53e9de382U, 0xbdc6bba13c61a714U,
  0x3dc9c5efbda2355fU, 0x3e7db6df3d9c39faU, 0x3d9f2d183dcfbd13U, 0xbe53a41fb94c6eddU,
  0xbe455c1cbd0b8791U, 0xbe24bdc9be1bb1c8U, 0xbd947f953da89418U, 0xbeb630503e456152U,
  0x3d7a8d24bd60b835U, 0xbd95990abdd3052aU, 0x3e0e3d3f3d1755adU, 0x3b27c6473d5bf127U,
  0x3d48e6ea3c802939U, 0xbde42305be88d1c5U, 0xbe8a447fbca27a6fU, 0xbc1acddcbc8a767eU,
  0xbea1547abe995435U, 0xbe8032b7bdad3035U, 0xbe3a3f9d3e325bc2U, 0xbdf8aea33ea129edU,
  0x3e3a338d3c9c8ca5U, 0x3c5734853dbf26a4U, 0x3d34dce63eb758c5U, 0x3cc4d4463e915c04U,
  0xbe574617bca9480fU, 0xbe20d8f3be551e51U, 0xbe734dc5bd9877d7U, 0x3aaf15523c7116d2U,
  0xbc19b8f3bcf3ce3cU, 0xbd838635bddc4fd7U, 0xbd7568aabd7a0fe3U, 0xbdf3b13c3d8fa8c5U,
  0x3e0bbbc83da92820U, 0x3da828b03e2a5abaU, 0x3da392a93e62179dU, 0xbe16ffa1bdcd7c9fU,
  0xbbc74051bd4e60cfU, 0xbddb5cbdbe4f2e71U, 0xbe9c21e83e661c71U, 0xbd3da118bd7c0185U,
  0x3c4bcbc83da7a698U, 0xbdf6652f3dd4f8ceU, 0xbc6302843e27f070U, 0x3ce090bebc171eabU,
  0x3d0b67df3e49786dU, 0x3dc38e4a3e4fdfd4U, 0x3dbdd16a3ed5bfa1U, 0xbe9a4664bef050d2U,
  0x3e98110e3dc1a70aU, 0xbd1049343df8460dU, 0xbe179138be485ceeU, 0xbe414553bed7bfbaU,
  0xbe31285dbdd45d1eU, 0x3e1823d53d8bd636U, 0xbe954c22bcc3ffe7U, 0xbeab43973e90c3a1U,
  0xbe92d616bc8c4428U, 0xbe033bb4beb04341U, 0xbea4e211be17f157U, 0xbcd445573e323918U,
  0xbf12de19bf0e768eU, 0xbe2c17bbbec6deebU, 0xbf033a603dd07dd2U, 0xba9b22783ea9b2b7U,
  0xbe95fd3b3a3ac988U, 0xbe74109bbe84d449U, 0x3c9882c03dbd8473U, 0x3e6717d93ec43eb8U,
  0xbc7a95693e8ac22bU, 0xbe1043023d353b12U, 0xbb9027acbd6b60b5U, 0x3eeafcd63f03e392U,
  0xbe001147bdd13767U, 0xbe4f07afbe08af86U, 0xbe1d57f53f3b1a10U, 0x3e4e80543ef06172U,
  0x3e2872e73cb0574eU, 0xbc6f952cbd62fb59U, 0x3e9cbbec3e836ab2U, 0x3e7d130e3ecafbf2U,
  0x3dc7de94398826caU, 0x3e3503683e394206U, 0x3ccba7e7be9eb79aU, 0xbcd4536a3e4210daU,
  0x3b53ba423dcb6461U, 0x3e48f47d3e1751caU, 0x3dff1c323d00ed6aU, 0x3e055dc73e3219a0U,
  0x3d01cef93e923fc0U, 0x3c92ba943e907855U, 0x3e2435203d146864U, 0x3e7d74933e6fbd97U,
  0x3e2638033e41a1d6U, 0x3e0e236a3ebcf0c2U, 0x39c0502b3dc38e00U, 0xbe20d99e3dc6e323U,
  0xbd5bbc0abd8208f8U, 0x3da032ef3e2e382fU, 0xbe1a981dbe86761bU, 0xbd711453be408da1U,
  0x3e3166e4bda2d64fU, 0x3e4bdeb83e051ed4U, 0xbe89bcf2bd1d3244U, 0xbd325fe23e63b9cbU,
  0xbeba7576bec41cf3U, 0xbe1e4b77be78a824U, 0xbea283dabe1518e0U, 0xbea6b0e23ef9feb2U,
  0xbeaefdb0bebc7d18U, 0xbe98f9e9be8ac78cU, 0xbeaf6bdebd721a5fU, 0xbdcfaefc3e2db002U,
  0xbeb8cd21be1070beU, 0xbe19c9c4bebdc330U, 0xbe8e61343d6f40e1U, 0x3e529ca93ea91894U,
  0xbe150e9bbe02aa79U, 0xbe10dc59bd21e104U, 0x3e03af543e7850f4U, 0x3e685b203ec290b2U,
  0x3dc8ad69bd2dcf37U, 0xbe1b643fbe5f64ceU, 0xbdd81908bd12e173U, 0xbd89cf01bdb899a7U,
  0x3db91993bc8c7e38U, 0xbe2f187ebe1884f3U, 0xbc4078cfbd76f61dU, 0xbd386718bdfcd7b2U,
  0xbc7d8ac23c3706b5U, 0x3db19b673d8ad3e4U, 0x3e0e35c33d8da9f9U, 0x3c8619d63df10c79U,
  0x3dd65a433e8a9a26U, 0x3d9988bc3e233df3U, 0x3dbe89f53d2a8e6eU, 0x3dfd35f13ca85121U,
  0xb98373e83dbb75fcU, 0xbdfa0d843d1b737bU, 0x3dd1290bbc48c75cU, 0x3cd215c43db0b505U,
  0xbd662cca3e431e10U, 0x3d33d5a53d58ac03U, 0x3dada2cc3e055845U, 0x3e63b7763dcd5f46U,
  0xbdad9a16be2a0293U, 0xbdd4b880bcce8a1dU, 0x3ecd43ee3d618620U, 0xbda0b1eebd645817U,
  0x3dbec72e3e4f6c04U, 0xbda08c3abd2e8eefU, 0xbc46521f3d0bde84U, 0x3d135553bd072bd7U,
  0x3cff01023d1e0150U, 0xbd8c48a2be8ac526U, 0xbc71d6b8bd695846U, 0xbd318a9ebd6b2598U,
  0x3d3e95913dee9b6fU, 0x3ce22fb7be67e1e1U, 0xbe25c251be0b49bcU, 0xbd94391ebe1b96c5U,
  0xbe3f70283c859804U, 0xbe9b1276be2e26cdU, 0x3c4e1df2bd8d9af6U, 0x3cee572dbe219260U,
  0x3b48dc6c3bdc21f5U, 0xbdba42edbd6e2f32U, 0xbe71d77abd55822eU, 0x3bfdc6cabe89ca43U,
  0x3c7e6b1f3da88ca3U, 0xbc15f9583e347e92U, 0x3dafc3823dae5c83U, 0xbd5ecce83e37ad81U,
  0x3e06e3953cc0f1f4U, 0x3d754e2a3d1a8d05U, 0x3e2f5f283e684a16U, 0x3df8f5243dffbb94U,
  0xbd2cb979bd911728U, 0xbc723cec3dd4fe5cU, 0x3dbd9be33d9118efU, 0xbcb7916abd67a6fbU,
  0x3ce06655bcc3c9a7U, 0x3be33a16bd054313U, 0xbca1b2013e488caeU, 0x3e7298483d95c7a8U,
  0x3da420f4be42c53bU, 0x3d3e9d2dbc9b8c67U, 0x3d39acacbd89d14eU, 0x3dd93cebbcd8a565U,
  0xbd5a35a73da18639U, 0x3cef5ab4bd7ae51eU, 0xbd72f84f3d1812e3U, 0xbcc0b0da3d636feeU,
  0x3e1ef9d53d6a9dedU, 0x3e2b8b42bda99a3aU, 0x3d8da29bbd4cdb93U, 0xbe07e28bbca85ca2U,
  0xbe035f38bcea7cb6U, 0x3e95fe75bdf84a84U, 0xbd8333bf3d9dd6c5U, 0x3db619f8bad4fa8cU,
  0x3e1d990e3d0ce5eaU, 0x3d96afafbe572ad6U, 0x3d85e5543cec8ca9U, 0x3dbe7b453c1c92faU,
  0xbe7dc3f13e511b5fU, 0x3e47e464be5e6df0U, 0xbe5a8261be297b62U, 0xbdc4c931be207d4cU,
  0x3db55041bd1c4216U, 0x3d5e5fbd3e0db738U, 0xbcff6cb93e784879U, 0x3e0a0f58bc46b622U,
  0x3d205d05bdcbedf2U, 0xbdbea1563cd74fa6U, 0x3d9d32983e4777cbU, 0xbc979276bc24a766U,
  0x3cb68601bdc68cc2U, 0xbd2fb6fabe36e939U, 0x3d55cb0f3dda00f1U, 0x3e9104ffbd510af2U,
  0x3c9c52e2be90ca42U, 0xbdbd14d13b7f9177U, 0x3dd5a8113d7495c0U, 0x3cdfaa093e698313U,
  0x3d955fc3be605e53U, 0x3dd157b63b4941ccU, 0x3d025e7c3d0ddf47U, 0x3d91e3db3d38c3c2U,
  0xbdc58a6dbcffa842U, 0x3c4304c13cbf1120U, 0x3c4db397bd00f16fU, 0xbcabb9573df60cc8U,
  0x3e4e7ca83dd8ae46U, 0xbc940f393cf51132U, 0xbe03de163a89e2a6U, 0x3bde6be53d496aadU,
  0x3d7bc1ce3d4d8ecfU, 0xbc412be2bd1d2b50U, 0x3d64882e3e192f52U, 0xbda42aa5be0d0e03U,
  0x3e2df9a63d9087ddU, 0x3e93e213be18da77U, 0xbe50ec453e37cdb9U, 0x3e04ccbb3e1e02a1U,
  0x3d8fa4bdbe1ca5cdU, 0x3e98fd1d3e38c605U, 0x3e6bcaffbd685d80U, 0xbe0979f43e79067fU,
  0xbecf96173dfab52eU, 0xbdba5ed2bc3384c2U, 0xbdae1493be2cc462U, 0xbd05611239828c98U,
  0xbe6337f03d819befU, 0x3d869148be085131U, 0x3dfd2d813d189244U, 0xbea0608abdc7e689U,
  0xbe86f0f53e37d434U, 0x3ce2ded1bdc9f636U, 0x3e5305a3bd9dc0f6U, 0x3dd3a59dbd8d56f4U,
  0xbb9c0bf9be9459dfU, 0x3e454fe03be1c003U, 0x3e194f5bbd26f528U, 0xbe8f0358bc84c4e8U,
  0xbdbc6e94be154a09U, 0xbd2eb8463d5e743fU, 0x3d0413e73bc73094U, 0x3dc31e79bd9fa3e0U,
  0xbe0c59b1bdf4beccU, 0x3d0d93a53d3f3689U, 0x3c58ab513da5b56bU, 0xbb4f2bfe3e0e329fU,
  0x3d33329f3d9e7800U, 0xbd08f3253e64b5d9U, 0xbdf1317d3da8df8eU, 0x3d039b1fbce807efU,
  0x3bd96638bb85fea4U, 0xbdd765be3d12c99cU, 0x3cb3c7413dd09228U, 0xbe38e6413da889f4U,
  0xbcee8d363dbcc51fU, 0xbe8a3a133e39f58aU, 0xbdcf2923bd06ec10U, 0xbd90211e3d4771feU,
  0x3e3ae9373d9ee08eU, 0xbe5a040b3e367107U, 0x3cc203833d440c0eU, 0x3e34d8833d9d1a76U,
  0xbe5cc6653da7846aU, 0x3cd1fcb5be40604bU, 0x3e7e338fbd8e0ce8U, 0x3bb375543bd9f7fdU,
  0xbe01c808bdecf92dU, 0x3d6d1326bdec06f3U, 0x3d991b723d3ad591U, 0xbe58dc2fbd1ebe0cU,
  0xbea9b5403e18a4b6U, 0x3e2917ccbcbd66d3U, 0x3d8db93abd072686U, 0xbe3b7677bd721f0aU,
  0xbe0996293c79f4a4U, 0x3dbedb483d479bb2U, 0x3dc4a1a23d971b63U, 0xbe7183eabe6a5affU,
  0xbda060f13e27ac78U, 0x396732aabd4f5eecU, 0x3ab2ff0c3d1e2308U, 0xbe4a3b073de09bcdU,
  0xbd8c74e73d367dd7U, 0x3ca6d462bd1d6023U, 0xbdf4bd373ce1977aU, 0x3ba280a8bda478e5U,
  0x3db59a1dbe61ad75U, 0xbdf422153ee7e02eU, 0xbd2bbb743e1885efU, 0xbe86d6753e03e0c1U,
  0x3dba63d23e31e074U, 0xbcd2fe9a3c277374U, 0xbeada354bdb4a109U, 0x3e20dca1bdd203ddU,
  0x3dc8b869be7ea867U, 0xbd1630b9bcf82852U, 0xbde326f73dc3f579U, 0xbda6ebd8be1ad037U,
  0x3e66d0573d13b3ddU, 0xbe1252eebd8fcd8dU, 0xbf0a9045bc6dc4ffU, 0x3d0a1fa33db12e0aU,
  0xbd88a6403e0282beU, 0x3d6df5fd3e99fe50U, 0x3d4665ddbd908073U, 0xbcf5a16f3ded2fb6U,
  0x3e59bc563e2d6e82U, 0xbd00021dbcc2fc71U, 0x3d8f39073db217a3U, 0xbc876bccbd4c761cU,
  0xbcd25c123d9379c6U, 0x3e2b7d56bc496be4U, 0x3da26c3a3d6a22e8U, 0xbdd75c3fbc894b8cU,
  0x3db0f0fe3e17dd43U, 0xbd2e4d613da4d7ffU, 0x3def47d53e00476eU, 0x3e3201233d1c424dU,
  0x3c88bab0bd9ac21fU, 0xbdd4bfcb3e08eb41U, 0x3dc6a28b3de92f60U, 0x3daa36713c775a5aU,
  0x3d4940953b6e8ff2U, 0xbdb0811ebc903750U, 0x3c9167c93e326d22U, 0xbbf95b90bdd38201U,
  0xbdc67698bcd6320aU, 0xbe3f27ff3df9189eU, 0x3d140dc23e2c3f33U, 0xbe3d91693e1e6e78U,
  0x3a076452bd43da30U, 0xbd6b6bb63d9e837bU, 0xbd19dca73dc2c35eU, 0xbd821c15bd407344U,
  0xbde7c49bbe6e2e07U, 0xbe6ace143d5999ffU, 0x3e4f31683d3ae58aU, 0x3e4c1538bd1f3679U,
  0x3b6d5a8bbcfc82f3U, 0xbe2af5403de94490U, 0xbe997b4d3e4e6e5fU, 0xbc6ff986bdfbf9f9U,
  0x3dae2cb93c203bd8U, 0x3d8ad83ebe248f75U, 0xbc117b673b5b1630U, 0x3b6a7553be5d3ba1U,
  0x3e2387073d2a5de3U, 0xbde88a973d38a1b1U, 0xbd89c227bcf556a6U, 0xbce6a538bcf9600dU,
  0x3e72be883d0eb9dcU, 0xbd586d6bbbc45c85U, 0x3d6060ebbd310dd3U, 0xbdd29bcbbdaf683cU,
  0x3de212d23ea0002fU, 0xbd847005bcc6b240U, 0xbe235cf7be0fe065U, 0x3e88c710bda95e66U,
  0xbd3abfca3cd601e9U, 0x3dd6d779be1d29d9U, 0x3d042f3abdf311ebU, 0x3dbe83c3bdb2619fU,
  0xbbb59ca03e5d6915U, 0x3d406e6a3dfdbe84U, 0x3ce2d7c03e57e78eU, 0x3e7f8baabd04357aU,
  0xbda09ae53c703961U, 0x3e91190c3dabbf37U, 0x3e04970ebe0f8f3cU, 0x3e22f6afbcd9ab70U,
  0x3e0fd259bcc763dbU, 0xbc1db5e5bd8f02b3U, 0x3e4625aa3e53214aU, 0x3dfacf3c3dbda82aU,
  0x3ceb01d8bb89effbU, 0xbe988084bcaa07bbU, 0x3d1e662ebdfe107dU, 0x3d72a90abdd2c1f4U,
  0x3dab6042bdb41240U, 0xbe5c449ebe2d0669U, 0xbd38f8f53deddd46U, 0x3e26ca5a3e1dbd66U,
  0x3eadb0dfbe63c675U, 0xbd3fb18abe220345U, 0xbda810f33d29c770U, 0x3db0f89bbd9ffb82U,
  0xbb5f22f8bda3f21bU, 0xbd31343dbaaccf73U, 0xbd38fa52bcf780aeU, 0x3d83a1e03c430227U,
  0x3e7cb4e2bdcfe536U, 0xbd9e9bc2be07a165U, 0xbed880bfbbd80c9eU, 0xbe078493bc98578fU,
  0x3dcba3a5be1a0875U, 0xbe1bfd8ebdeb116fU, 0xbe80f453bd0b4b98U, 0x3e4fdf9c3e8521caU,
  0x3e1b908fbe0154d5U, 0x38db87a0be1cd2fbU, 0xbe370de4bd945848U, 0xbc3fbb7a3dad02c1U,
  0x3dec6de3bebb4291U, 0xbe552889bdda3001U, 0x3e49e67ebea6c9fbU, 0xbd2d0a3e3e91ae40U,
  0x3e9836b03e1e7693U, 0xbd247c39bcd4de3aU, 0x3d8585863e045e13U, 0x3e127cd4bdd38f25U,
  0x3da1c61bbe93f6c7U, 0xbe60274bbddcca5eU, 0x3e6ecffe3dd11d9cU, 0xbe913f5abd6eb4d7U,
  0x3e0d54e8bdb70486U, 0xbe40b07bbe06d1d9U, 0xbd9cd2e03d780081U, 0xbde4a13ebdcf0ce1U,
  0xbd3296a3bd8efcafU, 0xbe5e2bb63c6a1bb8U, 0xbccea37ebe7c1034U, 0xbe492da03cebb70dU,
  0xbd572c65be03bdc1U, 0x3d7ac4323dc4640aU, 0xbd19f882bdd60df0U, 0x3dafd7e0be392ddbU,
  0x3e0e8230be3b9643U, 0xbcdfc9b63b028312U, 0xbcbbdc7e3cade2c5U, 0xbe0069643cf77c47U,
  0x3d9a6c613e3465baU, 0xbd3489a13d4b23d4U, 0xbd59db893dadb1adU, 0xbe38c2ac3db8e904U,
  0x3e204098bd982d0cU, 0x3a6e10e73d6a3bd8U, 0x3d77ab493dedeba7U, 0xbd88fdd93d992269U,
  0xbc8489673e0e10b4U, 0xbd401871be41eba8U, 0x3da282463e07e552U, 0x3cf92f243e46f7b3U,
  0x3d7282c7bd17cf75U, 0xbdbfda6a3e1c9d6cU, 0x3db8d2e63c6e6a25U, 0x3e7353a4bc13c65eU,
  0xbddedf0e3e39d814U, 0xbe8c2762be167706U, 0xbd827af33d6f6516U, 0xbd8565b73d5e499cU,
  0x3d3e02a33d8dd89cU, 0xbee11371be0ba3dfU, 0xbd9284e8bd70d3f6U, 0x3d9df7073e0b2c3dU,
  0xbc998567bd89adfaU, 0xbe046af4bd42b0f5U, 0xbcc580643e3f1031U, 0xbc0464063e39c2c6U,
  0x3e856c393e93df98U, 0xbdf5b6c73ddec41fU, 0xbdb60f0dbcb6e841U, 0x3c2f34ab3e8ba56eU,
  0xbe06861d3cae14d2U, 0xbd8e9d743cc27f2fU, 0x3e7bfa25bc438a0eU, 0xbe316f4a3d72eb67U,
  0xbe15b7b2be1c4c47U, 0xbccfbe843e287644U, 0xbd4e575d3e8635f1U, 0x3d1ec6afbcd33a3fU,
  0xbdf6314b3e3932aaU, 0x3d1e69ea3dae715dU, 0x3e64e185bd92e69cU, 0xbe76ec92bdb1c6dcU,
  0xbe1baada3db25f5bU, 0x3e00f9123df3ab8cU, 0x3de67bce3e2963c8U, 0x3e00a368be215617U,
  0x3d4529503e766c62U, 0x3ac94ad1bd03d9ccU, 0x3e5c0a49bdc5e6c7U, 0x3e905db3bd4f6cdbU,
  0x3d9f59ee3dc046edU, 0x3c2b604abdb45a9bU, 0x3e47434f3e8151dcU, 0x3d38c53fbde6928bU,
  0xbe29b2a93d800663U, 0xbe4b8088bde21bf6U, 0x3e0c10fcbcbc6405U, 0xbc2e7e06be1ba19aU,
  0x3ca82dad3d797e72U, 0xbdf54e70bb9b7242U, 0xbe9d3ddebd8ad2caU, 0x3d44caa4bda7afb9U,
  0xbda53b3abe3336e0U, 0x3e2bdea3bd577896U, 0xbcee78f0bdfd7dc2U, 0x3d6cf945be88cb75U,
  0x3ddfb6ee3ea57207U, 0x3b8b3ec6be3ce186U, 0xbe081ed4bd870feaU, 0x3e6103cd3e0cb971U,
  0xbbfb77a23d76d6f2U, 0xbe12411f3dfd8a15U, 0xbc974a2fbcceed88U, 0xbdfd69ad3d35e85cU,
  0x3a34a5bd3df3c2c1U, 0xbd4f5da03d029310U, 0x3d937cfe3e20e269U, 0xbc8392703c202a35U,
  0x3e11ac50bd314798U, 0x3d076c3d3e52a1e9U, 0x3f0c4c36bd0a8adbU, 0xbdc00ac43daae1c6U,
  0xbe17d3dc3db19e4cU, 0x3e8905d3be80939bU, 0xbcb745ebbe075e11U, 0xbd8b8127be1dfee8U,
  0x3c3fe9903de01c3fU, 0x3e05689bbd64385aU, 0x3e4f2d3dbda1b770U, 0xbe49b1513d16fe95U,
  0x3e0ad8403d0d8048U, 0x3d8495c83cc3bdacU, 0x3c83a8293cea1ef8U, 0x3d6d6f8abe61712eU,
  0xbe093c133d4ed41fU, 0x3e27f4793e344a8aU, 0x3d76aa113d7f50a7U, 0x3e5f39d43ce3e8aeU,
  0xbda51219bc6e14b8U, 0x3cf2046d3cda191aU, 0x3d7990e93cd8ce34U, 0xbdfae3493da9e9fdU,
  0xbdcff50a3c843172U, 0x3ea88ca0bcb094feU, 0x3e445e07bd57eb00U, 0x3d0a8cfdbd37630cU,
  0xbe67594abde3a027U, 0x3e2036623d939a49U, 0x3e1101833d1e59a5U, 0xbed625133d233f19U,
  0x3d6ec5f53d240af5U, 0xbdfe9f64bdb84f39U, 0xbc875318bc177172U, 0xbdeaae8abdba7296U,
  0x3dfdb0073e180402U, 0xbe044422bd1deaffU, 0xbe271c9fbde05fadU, 0x3def2cf3bdf586c1U,
  0x3e1f27f3bd7dbda3U, 0x3bc60c56bec21ce5U, 0xbe1070213ddaf1e2U, 0xbe8dc0643e45bf0cU,
  0x3db19dd03e34362eU, 0x3db795243c708a96U, 0xbd2fca8cbebb7e25U, 0x3e808e30bd5264bbU,
  0x3e1664e73df685bfU, 0x3e900a26be95a5a6U, 0x3dc86c363e532abcU, 0x3de381953e54a442U,
  0x3e1e72603e02623eU, 0xbd419c4c3da2f0fcU, 0x3cfb2fee3c5ce7dbU, 0x3d24b101bd953ae9U,
  0x3d631a8e3e14f911U, 0x3d894376bca9191aU, 0x3d922b473e222230U, 0xbcd10f913cd96261U,
  0x3d019276bd98b0cfU, 0xbc93a5f83dd7a48bU, 0x3e844a213be82c05U, 0x3d082d233dd445deU,
  0xbdd657b7be1cefadU, 0xbd8e10b03dc50f29U, 0x3e19549c3cfce7abU, 0x3db417543df817b4U,
  0x3b9c8603be6e80f9U, 0xbe0925b13e3bc49cU, 0x3eed24853cd5e5a1U, 0xbe41145c3e37e1ffU,
  0x3e2fc3cabdc27968U, 0xbb950ac9be416cd4U, 0xbe1a006f3d814c42U, 0x3b9519e8be549d70U,
  0x3decf35d3e28851dU, 0xbe0914353deed6d7U, 0xbe332a353d0a47dcU, 0x3ea0c41b3e58da31U,
  0x3d27d5a6bc8c1a0eU, 0xbdae91f5bd44fb2cU, 0x3bc0cc70be83f1efU, 0xbca46f983dd8b52fU,
  0xbd42871f3d8abe54U, 0x3d608fc93bcbfcfdU, 0x3c454be43de5a186U, 0x3e9df5f93ec85160U,
  0x3db0629d3d8bf768U, 0x3d9ec2eebd67e9ecU, 0x3e91c9c9bdfb0514U, 0x3e7a09b93d8208c4U,
  0xbda2f756be8b1095U, 0xbd15d1dcbe7a6793U, 0x3db4032a3ebb6571U, 0x3e04f6e93e867229U,
  0x3ce7e5763d2f92deU, 0x3e6725d73e6efbddU, 0xbbd8673abe012d87U, 0xbcb6a0ffbe72fc0fU,
  0xbd1231423df746d4U, 0x3d7a79c1bdb4b522U, 0xbc6687233d08022aU, 0xbe742b19be05166cU,
  0x3d8abfc4bccd76a7U, 0xbdb2878f3e1b3f3eU, 0x3d50bfe13d1718a0U, 0x3d64243dbe79e2a8U,
  0x3bd53b543b24274fU, 0xbda89fdd3a7f723bU, 0xbde9adbc3b6664f8U, 0x3d8390b1bdd92701U,
  0x3e03dd92bdd17321U, 0xbd8f19473e1e5429U, 0xbdb886ca3dda30a6U, 0x3c61b5f43dcd4477U,
  0x3d096b28ba995562U, 0xbc1610c13d2bc14eU, 0xbd252a253d34b782U, 0x3e075cac3e1cef93U,
  0x3dc709b4bd8e6165U, 0x3cf178823d5c0d0dU, 0x3d502bc5be916ef1U, 0xbb865c8c3ba24521U,
  0xbcdbfb7b3d0531baU, 0xbe4b03dd3dc05befU, 0x3e049ac53e94bf27U, 0x3dbab2043e2b6453U,
  0x3d857b7b3e979e45U, 0x3e2ecd0fbe231ebdU, 0x3e0c1cbd3d943f1bU, 0x3e1fad283d37a4cbU,
  0xbe12afc7bd8db77dU, 0x3da8e77bbdd3adf6U, 0x3d91ce203e7f5c5bU, 0xbe40e1933e01c56cU,
  0x3e4a1ef3bd3a3eacU, 0x3d0feb5fbcdae244U, 0xbda5dfab3d837671U, 0xbe1d3a7dbb83a35fU,
  0xbceda75a3e2e7c28U, 0x3d3196cbbd169f87U, 0xbdab90c13d2d3c43U, 0xbca19ecabd870413U,
  0x3e80da923d386d01U, 0x3dabea233cc82bdbU, 0xbd956e773de59d1fU, 0x3c4555ac3e2c02a0U,
  0x3e975b983d35130bU, 0x3e82befa3d5fe229U, 0xbdb630763db20189U, 0x3db9c0bdbd35d04dU,
  0x3e76be5bbe11f2c2U, 0xbe2d61a53d9d6fadU, 0xbcae106a3d13ec11U, 0x3d1cc89f3c34ea59U,
  0x3d9b1bf6be556415U, 0x3d67497cbe19219fU, 0xbce104e43e0e6862U, 0xbdb9bbb2bdb3147bU,
  0x3cebeab9bdd09e52U, 0xbd4a2348bcdac23cU, 0x3b9bb1a43e16869fU, 0x3d70173cbd30ec8bU,
  0xbdee37f1be9a7431U, 0xbe3ad2393d90403fU, 0x3e2be0143d988283U, 0xbe17e2443c2ba66dU,
  0xbe3831173d3a0ea2U, 0xbd2de5dcbc0b0529U, 0x3a7d07c23d0d1051U, 0xbcd225343c8385acU,
  0xbd86ebc9bd5a4dd8U, 0x3d9774a73e1981caU, 0x3d01659bbe12fb83U, 0xbda0b2113da31d0dU,
  0xbdbd3ccf3c1a92eeU, 0xbd4d8866bc0f24b0U, 0xbd8f1cbe3ced96b8U, 0x3ddd399fbcde2a3fU,
  0xbd892beb3d397123U, 0x3d83e6acbdab5402U, 0x3e093a0c3cc35862U, 0x3d84bc2c3e93e67eU,
  0xbe2beedcbe2a5b61U, 0xbe7fcf34bd54b2c8U, 0x3de26b7ebe28662bU, 0x3e12dddebdb04b4bU,
  0x3d12716e3df3f708U, 0xbe835354bdbe704fU, 0xbdb141bc3e2ac78aU, 0x3dcaa6243ce5342aU,
  0xbc7aa0dfbde846f2U, 0xbd231c71bd880eecU, 0xbc722b2e3dfc536eU, 0x3d28e6fabd4cc584U,
  0xbe2543f0be3db7c9U, 0xbcf3b3bdbdd1dfa6U, 0xbd86bb703de2acf4U, 0xbc77cf373d173f21U,
  0x3dbeb0963ca2496aU, 0xbd91df10be691ee9U, 0xbe1a31893e1e9ae8U, 0xbcbc45173d4af472U,
  0xbcbc9c2e3dd99830U, 0xbe5ee9783e489874U, 0xbdc459f5be890b86U, 0xbc9c3d4b3e0d2286U,
  0x3d3ad8503db3718bU, 0xbd69b9013d84f04bU, 0xbe2d84113de6a5bdU, 0x3c174a60bc11a593U,
  0x3d88d3b03d0b13d4U, 0xbe343b963e496d13U, 0x3d806f85be9b73cbU, 0x3d820dae3e037724U,
  0x3e80ca3f3dbd93f8U, 0xbdbb2e383df34373U, 0x3d75bc983e47ba55U, 0x3dab4b8e3e5a2067U,
  0x3e083c933da4bdd3U, 0xbe6520743d7be428U, 0xbc867a4a3dfb8026U, 0x3dcf37debd2de291U,
  0x3db6fc3c3bec26d1U, 0xbe8ca2b33e254abbU, 0x3d183205bd3769d0U, 0x3d6f8d163c11493eU,
  0xbdf13f093e165f0dU, 0xbdd7ff2e3e0a8f0bU, 0xbe59bf073df532bdU, 0x3d81a0aebcc74838U,
  0xbd29f36e3dd97564U, 0xbd8b0d95bceb6746U, 0x3cf97e463e7efd66U, 0xbd84baf33e09e918U,
  0x3d9b0393bce505d7U, 0xbd8e663ebd197265U, 0x3c84cad4bd84f09eU, 0x3d13ffc53e00f9c3U,
  0xbd09d41cbd993d31U, 0xbe398df9bcc56e3dU, 0xbe95a93bbdedfffcU, 0xbe685bb0be30d6aeU,
  0x3d92fa9b3c17e1d6U, 0xbcf1082b3d24c99fU, 0x3c84e8e7be3c6008U, 0x3dee0aefbd6ad964U,
  0x3d75c5053cc3f0fbU, 0x3d55308bb82aafe8U, 0xbec09e623d2c3326U, 0xbeb9e054bd8c939eU,
  0x3e35aba5bd203a16U, 0x3dedb66b3d0100e7U, 0xbe43cce7be26b31dU, 0x3e039fc23dfc7243U,
  0xbdc7e23fbda751f2U, 0x3e67dcfabde29e0fU, 0x3d240f793de753ebU, 0xbda8ef463dca8b0aU,
  0x3c6083f1bdfff111U, 0x3d0325383e095c80U, 0xbe3533c9be274dd3U, 0x3d2fed5ebd3770d2U,
  0x3d3d82203d4374fdU, 0xbda43833bd4a30b2U, 0x3cffd52d3d4b2730U, 0x3db943d53cc0686aU,
  0x3ccb8fa1bd13715cU, 0xbc528b6fbe07260eU, 0xbe882b7e3d97d668U, 0x3d9f3950be1c7b40U,
  0xbe35b98bbc43de23U, 0x3d3858703e145844U, 0xbcde0e8ebe80aaacU, 0xbd7b407dbda39d7aU,
  0xbe2bfcc13de7d113U, 0xbe23332bbd509495U, 0x3c7699dd3e2579edU, 0xbdc61d863b87c1a7U,
  0xbe0152423e068682U, 0x3e38eed23d3654fbU, 0x3d8987cfbd52dc53U, 0x3db26c03be8696f6U,
  0xbdd4fc043ccbe32aU, 0x3e4c4de2be461f0cU, 0xb95f5c573c0ac44aU, 0xbe522e46bdbf8b46U,
  0xbe0b3bc43d7a1508U, 0x3e882fbebcd4fd2fU, 0xbe6d67a43e200dd3U, 0xbc0ee6193d125168U,
  0x3d930fd3be154515U, 0x3e83d3853dddf7b7U, 0x3e868921bd1a3c5cU, 0xbe201c8dbdc3a305U,
  0xbdeda3a03d40b229U, 0xbe16470c3e133f4eU, 0x3dacfea2bd0786d3U, 0x3e0e506f3dfe149fU,
  0xbcdef970be0e4f1aU, 0xbb9cf71e3e147fd8U, 0xbd729df23e0860a6U, 0x3e2bfd263e8e9f01U,
  0xbe4aca1e3cd28f0fU, 0xbeaca6a63d4e8ef4U, 0x3d1d4e54be1f9831U, 0x3e00ed9bbce40767U,
  0xbe24a2d8bccd7a95U, 0xbe464693bdda9ef2U, 0xbe29c7c53d1ac19fU, 0x3d67bcccbd159cceU,
  0x3deed8213d62d4b8U, 0x3db6629ebeaf8c3dU, 0xbc152384be28754aU, 0x3ce9bf8bbdf8f723U,
  0x3cb8d459bc8eeb03U, 0xbe252ab2bcd5c20bU, 0xbbfde9eb3cc0a525U, 0xbe06ff05bcd84ab0U,
  0x3c8a9a673d2570e6U, 0x3e626b783d681296U, 0xbd9aa77dbe0dd3b8U, 0x3e03f065be09a201U,
  0x3df819723e70f7f2U, 0x3d8f17d73de86e28U, 0x3d2c1ed43d4466d4U, 0x3d025fb0bd1f7396U,
  0xbe2590d93e8bb1acU, 0xbc6eae733e1ffabbU, 0xbe1edf66bd9e69d4U, 0xbe1265c9be5dc2a3U,
  0x3debf7433e080608U, 0x3cd8d8a93e0860f3U, 0x3e196a11be0606b8U, 0x3d77f142bbc898f4U,
  0xbdce50373ce8cb84U, 0x3e628a1fbb033654U, 0x3e0073123adb6cf8U, 0x3e23d945be397f21U,
  0xbe274057bd14f329U, 0x3dd8a4813da05a65U, 0xbdd60d913e18c6a1U, 0xbc840233bdba6f3eU,
  0xbc1aba03bc9fdd68U, 0x3e923d02be1bcd04U, 0x3cb081cfbe0a12f8U, 0x3e4b4f1cbcd9e347U,
  0xbe95ea9ebe5d7c54U, 0x3ddb61fbbe7fe69aU, 0x3e1ca7f5bcbdadd3U, 0xbeb78878be4960c7U,
  0x3e377f60bc029d7bU, 0xbda23ababe3388a8U, 0xbdb58dde3e163934U, 0x3dbf2b29be743951U,
  0x3d4ee6793d3e797cU, 0xbdf3a989bd9d5965U, 0xbde58c95befca1adU, 0xbde468e63d9ad9f1U,
  0x3e97ce46bdef925dU, 0xbd0faf4d3d6a3a91U, 0x3d5dd6de3e048c5aU, 0x3d6dda1ebd484cc0U,
  0x3dbd6f9c3d84f710U, 0xbdb27c513d5b2cecU, 0x3c322713be42c23eU, 0xbd6b8cc53e176e7bU,
  0xbc1d4764bd958a4bU, 0x39e11c2f3d259e2bU, 0xbd26c2b4bdc320e6U, 0xbd2dc2bc3d9d3d79U,
  0x3d472fb8bcb630e6U, 0x3d8b1d873c85d068U, 0x3de4c5d7bdeed79aU, 0xbdc0e5113e93012aU,
  0xbd6d9efc3cdbd1e3U, 0xbcc40cb3bdde382bU, 0x3cfe52333d727405U, 0x3d227b383d9863f6U,
  0x3d9e676dbd438a20U, 0xbd547d563e553114U, 0x3dd1454f3cf61c69U, 0x3cb27ff4bda9d0f2U,
  0xbe06e3bf3ce84f2dU, 0xbd0b17253e3e8795U, 0xbbe7cd593deaa104U, 0x3cbcf40b3e01ad2bU,
  0xbdd06003be268aeeU, 0x3e00a6a93d9398b7U, 0x3eaf0f193db7b66aU, 0xbd34cd80be5b1985U,
  0xbd6a24fa3cd5f775U, 0x3e231330be0f722dU, 0x3e1b9b133a6863c3U, 0x3d7d15c53d19c737U,
  0xbd9f7ac3bd8fa4bfU, 0x3d4de0e2bdb8bd1cU, 0x3d9e3ed03d721972U, 0xbc3a382a3c9df5f3U,
  0x39b486103e12d9d9U, 0xbbf3cfecb9d4671bU, 0xbf172eac3e27e8c0U, 0x3e2866293d001115U,
  0x3d59de8fbc3f1dc2U, 0xbc2d14223e4d44e4U, 0x3d0afc39bec33611U, 0xbdbf073a3dbaa736U,
  0x3dda60c73c1e966dU, 0xbe295ed4bd225152U, 0xbe917d453d93140aU, 0x3bd68f1d3e1883efU,
  0x3e2ca5603d261935U, 0xbe1d274a3c96dce0U, 0x3aaac5a5be93dc8cU, 0x3d23141f3cfcb33dU,
  0x3e19ddd2bd25d7beU, 0xbecd7d20bda5df7dU, 0xbe494c8f3deaa068U, 0xbe3c28e63dbc4ffaU,
  0x3e5a777e3d9915c7U, 0xbe08b6ad3d25c34fU, 0xbe18052ebdc81d94U, 0x3e6289553c9ba35aU,
  0x3dadf8e1bdfa8285U, 0xbeb440a4bdcdb368U, 0x3d535b9f3e27f29dU, 0x3e1eca033bb4b97fU,
  0x3dd22f0c3db2de6fU, 0xbe8d3d593e39ba7eU, 0xbdf0c6353d96a068U, 0x3e4c14ce3d3c92abU,
  0xbe94c504bd347422U, 0x3d8c51463e2ea328U, 0xbdd0e06a3daaddbaU, 0xbda326b43d025be3U,
  0x3d04d852bcd18714U, 0x3d95f6b4bd4a992eU, 0x3e11b6393e4642e0U, 0xbe868fc9bd592e29U,
  0xbca5a3b43e13d7baU, 0x3d68bf253e03ad3aU, 0xbd3b0dfabd9b64f4U, 0xbdb94e71be5413ebU,
  0xbd0861aabc667ad1U, 0xbcb41f103d2068b8U, 0xbd8836193c50c955U, 0xbe614c32bcc8bf80U,
  0x3c4346053df3790eU, 0x3d08efc93ddd4e25U, 0xbdcbefc73c05f9e1U, 0xbe38dcd6bd3dadc5U,
  0x3dcd59c43e077a54U, 0x3e4342733c22a86cU, 0xbd3d457e3c80567eU, 0x3cfb9d5fbce391cbU,
  0x3d0e9f7ebdcd03a9U, 0xbde40632bd8a7edbU, 0xbe853805bdbcc710U, 0xbeaf7540bd118c09U,
  0x3e55c4463e25696eU, 0xbdf0e4b23d4c94ebU, 0xbe9def83be58358eU, 0x3e7bbf333cd8041bU,
  0x3d933cb3be27c892U, 0xbe32a42dbe5c5097U, 0xbe72acb53cce6c5bU, 0xbe2c4691bd82b1e1U,
  0x3ec61eb43dcce948U, 0xbe4482c33e46dbaeU, 0xbe93505bbd10695eU, 0x3e6c40fe3e16e60cU,
  0x3e6236bebd16cae5U, 0xbdd567cdbe60de02U, 0xbe0b06fcbe787c00U, 0x3e645bfabcbda262U,
  0xbd42c85d3dedc8daU, 0xbe024c16bcaf0747U, 0x3c33afd0bdc13e11U, 0x3d05a772bc44b80aU,
  0x3e761b673da814adU, 0x3d777806bd93d293U, 0xbe72c798bd67b01dU, 0xbe89b1823da5d4a6U,
  0x3d85ad9f3e6bbde5U, 0xbdc5ea8639f4ad50U, 0xbd689662bdd63c2cU, 0xbdf2c9f9be22c9caU,
  0x3e519eb43de1e803U, 0x3d88b023bd686f79U, 0xbde0b75b3dda1303U, 0xbc88b36bbd375a52U,
  0xbdba2910bbb3a21dU, 0x3e871ead3cfae4ddU, 0x3e0fae80bc93a395U, 0x3d91d5c3bdedbd0cU,
  0x3e326ccdbe0474acU, 0x3d0df4b0bda2265cU, 0x3cd6f2893c86931fU, 0x3cd36db2bdfdee21U,
  0x3c113e823cb60468U, 0x3d738e23bd42faddU, 0xbe017147be4eb5ffU, 0x3e28102dbc1d3fefU,
  0x3d762a74be8cd6cbU, 0xbd8c0324bdaec1d2U, 0xbbfd71ddbd14df35U, 0xbdeddd51bda038abU,
  0xbbea8e81bb36411cU, 0xbe431021be48e131U, 0xbdfb38eebdb6e702U, 0x3e5200113d631462U,
  0x3e61f897bd57ff21U, 0xbd65d1e9bdd411f4U, 0xbe7d4b753d2e3edeU, 0x3e3e5ece3c239b41U,
  0x3c282139bd8433fdU, 0xbdb47b2fbe01ccaeU, 0xbe0279c0be2ef4ffU, 0x3db336753dc650baU,
  0xbd2412593c8157b7U, 0x3d2109873e4fc912U, 0xbe4a91b23dedc6f3U, 0x3e416fa03e1df7ffU,
  0x3df1f7b73d09b081U, 0x3e2140a63c71e2f8U, 0x3cde0a3fbcef0237U, 0x3ddf5ca43df74f63U,
  0x3cd4bebfbd9b97e1U, 0xbc1e06943dfd5ff4U, 0xbe2c86fdba414532U, 0x3cf09faebe2afc6dU,
  0x3c77a1c83dd5a2a2U, 0xbbafc56d3d89a2c8U, 0x3dfd1b183d14fa40U, 0x3d550c703dcfecc3U,
  0x3cccfb34bd4e5188U, 0xbd988506bd485794U, 0x3d2be925be3c298bU, 0x3da5e74a3c8cf36fU,
  0xbd90907ebe01948fU, 0x3e071bad3dd98bacU, 0xbba80e4fbdbe8189U, 0x3d973246bca23a04U,
  0x3e06fe813db8cafeU, 0xbd6f162ebe03cc1dU, 0xbc35254cbd75188dU, 0xbcb9259ebde65a7fU,
  0xbd435afbbc8580daU, 0x3d995176be13ff17U, 0xbe321e57be0ef2a1U, 0xbe8f7331bde690c9U,
  0xbd7abc403d0bc29bU, 0xbba204f93d493ab2U, 0xbda63be8bd1bbb52U, 0x3c8574d83d8ade7eU,
  0x3c833887bc862d74U, 0x3d9684223cc83fdeU, 0x3e1ab373bbd01340U, 0x3d0a571d3c1eb438U,
  0x3e107ac0bd136c6fU, 0xbc2b82103da53379U, 0x3e0117cbbd9f7bb9U, 0x3e16ab0f3d80e869U,
  0x3e239ee03e0f7da7U, 0xbd7803d33d2cd1c8U, 0x3e235aa0ba5fe357U, 0x3d59c23d3e15c00cU,
  0x3dbe5df7be1cf526U, 0xbe4e7a85bd096c4eU, 0xbdcf1d373d041faaU, 0x3db0c028bd604552U,
  0xbda5b8953d996a23U, 0xbd6df8403dd5fb05U, 0x3d9dd6fdbb08ea1bU, 0x3d4f85f03e81b36bU,
  0x3df76fbf3d88dce0U, 0xbdac21393e8a0a57U, 0xbd61b4fc3d14ab9bU, 0xbd3384d13c19ef01U,
  0xbe19c297be1932f0U, 0x3d7bdee83b3df2acU, 0x3cae10ac3e3f6446U, 0xbd9ef022bd8b4eabU,
  0x3d9c8b75bc91ae8dU, 0x3e9f062d3d914484U, 0x3e23aeae3dcdcbe6U, 0x3d1659ad3de268bbU,
  0xbd556d0cbdb42b34U, 0x3e387a25bdb3e13cU, 0x3e289e41bd7a955cU, 0xbd60ae3bbe166790U,
  0xbccf72a3bdb6b419U, 0x3dc69678bc9a3e59U, 0xbdcbdc7dbd97b959U, 0xbdae0b193da3e9ecU,
  0x3d245008bdf26749U, 0x3dc26c093dc3f84fU, 0xbdae350a3ca06793U, 0x3dce7a0f3d639ff2U,
  0xbccbd3843da28a92U, 0xbdaba9633d3ab0c0U, 0xbcb81a79bc8de692U, 0x3d3d4f323dd129b9U,
  0x3dad65d23d2c1921U, 0xbdcea3ca3d97ea75U, 0x3d80442cbd4a0277U, 0x3d90d6ac3d4d897cU,
  0x3cd1f0a63cccf980U, 0x3db41a233dae0fcbU, 0xbdb5e30abdd08d62U, 0xbd9fdcd6bdd8b1b1U,
  0xbdb28e43bdf5f35eU, 0xbc986646bdf18f17U, 0xbb937e22bdbd8abfU, 0x3cfeaf50bd4dc159U,
  0xbdca8445bd7de65aU, 0x3ccae5b8bd908d1aU, 0x3dd270d1bdd54f69U, 0xbd461d93bd7c4285U,
  0x3d9c79143de53438U, 0xbd4305d0bda9d480U, 0x3dcf7b10bce273a7U, 0xbd0f003ebdd9bf7cU,
  0xbdc7164f3c1b8a82U, 0x3c9aa170bdad27b2U, 0xbcd7bbb7bd0ce766U, 0xbc422885bd868e78U,
  0xbce4250b3cc05a17U, 0x3c81c518bc47484eU, 0xbd0aae60bd39b269U, 0xbd68200ebdd5870fU,
  0xbdb4b5ee3b38d5e8U, 0xbdc0f803bd461596U, 0xbd044f6c3c1b2e42U, 0x3dd0693c3d40216cU,
  0xbdcdf672bdc6885fU, 0x3c97d9163dd25f8dU, 0xbcdb065ebcd4b0cdU, 0x3d95eb6ebce3ac7bU,
  0x3d83a5ffbd70e0bcU, 0xbd4953aabd31abd5U, 0xbbcb17ff3d8a2684U, 0x3d352ad9be00f97bU,
  0x3ddbfe343daef58aU, 0x3d2a38623db33050U, 0xbe03a9c4bc9ee3f4U, 0xbda82922bdbaf7feU,
  0xbde299b3bd64c2a5U, 0xbd500b6b3ced984aU, 0xbd5f97693d551adaU, 0x3d9252823bac13b0U,
  0xbd93c38bbd13efe0U, 0xbdb712703da24a63U, 0x3db6376b3cc082c5U, 0xbd1338893dc1b9f3U,
  0xbd1405383d9a4829U, 0x3daf787bbdf54381U, 0xbd05c7473d920cb8U, 0xbd858987bd50d063U,
  0xbdf47cc8bd459ef7U, 0x3d257f50bd9d84e9U, 0x3d399dd93c8d3e64U, 0xbdf85259be08ef85U,
  0x3bc22d0cbd821f41U, 0x3d615f9b3d9ef4c1U, 0xbd921cc8bd53ae80U, 0x3db42baabdd15f4aU,
  0xbca51a7cbd0c2219U, 0x3bf0e9633d1be8beU, 0x3d55a7273dde0849U, 0x3db8f75fbdb9ee6aU,
  0xbcbc8b6fbd803a47U, 0x3cb586ecbda6396bU, 0xbdf72cb6bcc6e3c9U, 0xbda7785b3d64084eU,
  0x3d645365bc0659bfU, 0xbdc5dab0bdbe385eU, 0x3dc3f7c33c8793f5U, 0xbcbaa7eb3d1f0dc9U,
  0xbdee17b33dc2ce3bU, 0xbda6d0c8bdd46b69U, 0xbdd5c43a3b652e9cU, 0x3d95c2ee3d8a2d06U,
  0xbde606583d00a26fU, 0x3d567f07bd1d05f0U, 0x3d6f70393b85e3b8U, 0x3d706da3bdd5c517U,
  0xbde2bd99bca6aac1U, 0xbda711653d4b21f0U, 0xbc6ce3c63dc32477U, 0x3d02f1263db22e46U,
  0xbdf3bf0ebdcfe8bdU, 0x3d147ec43dbae979U, 0xbd3792d53d1d7bd8U, 0x3dae4da7bdf38f19U,
  0xbe0757bfbd874125U, 0x3be26e51bbc5bf5aU, 0xbd2137c6bdc5b707U, 0xbdc097113d10d9f6U,
  0x3d7ef15bbdd29420U, 0xbe049bfbbdec145dU, 0x3db9c7383dc2c9ddU, 0x3dbe4d92bd9105f3U,
  0x3d6b02be3d83f553U, 0xbd8090003d857f56U, 0xbdd97cfcbd32bd66U, 0x3d5181d7bce612bcU,
  0x3dc363033db25704U, 0xbde808503d66a68eU, 0x3d580541bde02e16U, 0xbdbd6cc83cf74d32U,
  0x3d22a6bdbccc0fedU, 0x3a03ac293dc022e3U, 0x3caf0622bd5e07fdU, 0x3d6e483dbda45beeU,
  0x3d66daa83da25b98U, 0xbd96687d3d085b95U, 0x3d853a663dbecbbeU, 0x3d4821953ce6a2c1U,
  0xbd07680a3d346bacU, 0x3dc87ed7bd80025aU, 0x3dde560ebcab8d72U, 0x3d5755923dc8d3c7U,
  0xbde7ede23d1ff1b7U, 0xbca988513b0bc852U, 0xbd48baf53da0cf61U, 0xbd504373bd4f8717U,
  0xbbe764543c9c1b1eU, 0x3db4b888bd4fba58U, 0xbda531923dbb846fU, 0x3d82ec07bd8ac40dU,
  0xbcfcdf49bd6cd926U, 0x3c75599dbc5945aaU, 0xbd933f49bd1561e2U, 0xbdba0df6bc917e62U,
  0xbcd36e71bd12ec1bU, 0xbd93e519bb8d52adU, 0x3d475ca53d937eb6U, 0xbd7b7fc43d9f36ccU,
  0xbbcb44ddbd775364U, 0x3dd7af6fbd05f7d9U, 0xbdbe86a1bd8e6821U, 0xbd4272c3bd781396U,
  0x3d98b72abb808c6cU, 0xbcc21f7d3dbc41beU, 0xbdabf280bc2f705dU, 0x3d80e81a3d26896cU,
  0xbde9892ebdd14b77U, 0xbd50b2a8bda71642U, 0x3d1af4b8bcde8423U, 0x3d265f1abd2f2e3bU,
  0x3d68e583bc7a9bf4U, 0xbbc08538bd9acb0aU, 0x3d3a9904bd81f616U, 0xbde289733d077aa6U,
  0x3dbf293d3dcdda49U, 0xbcb7fb6bbd748775U, 0xbdf7faa4bdd38321U, 0xb995bef23db1df73U,
  0x3d907de63ca17e47U, 0xbdbd3bad3da1a44eU, 0x3db696093d6ba05fU, 0xbc26ff50bd8d6c7eU,
  0xbd3e65463cc57dd6U, 0xbd6d1dcebb3ae39aU, 0x3c4c09d63dd52f66U, 0xbdde891fbd95227aU,
  0xbdc312a83d2fc0dfU, 0xbd96d5b1bc8e1745U, 0x3d0e2a963d840274U, 0xbdb13a6dbdf857c2U,
  0x3cdeb6663d7fd53bU, 0xbd71be9cbd134414U, 0x3d7c75d73d809f58U, 0xbdd46ad9bbbdd99dU,
  0xbb405b14bde265b2U, 0xbdf103783cd96b9aU, 0xbcaa4475bbdaec2eU, 0x3dc450dd3d847fa0U,
  0x3c38a8d6bd39c784U, 0xbd87a79dbdace2afU, 0xbd8916aabd92b1a1U, 0xbd9e44bcbcab3fd4U,
  0x3d72c1bcbdf06f0aU, 0xbd8bd39dbdfc5679U, 0xbcc4c8a5bd4fcd5fU, 0xbcf8b896bcb896e2U,
  0xbd5a74543da17890U, 0x3ca64c1e3d9ce55cU, 0xbcee12d13be68283U, 0x3ca36933bdde331dU,
  0x3d5cd250bc5e664bU, 0x3e7bade13c8a812eU, 0x3de7e2223d9d204cU, 0x3e2dc04f3da6f7d0U,
  0x3dc0c299bd61fd83U, 0x3d72e372bb7cda20U, 0x3df9ac733e302139U, 0x3cbe8ec63e40df35U,
  0xbce23c7dbd4f2bd6U, 0xbdd0cb223e56b6efU, 0xbd018b473df9d287U, 0x3d2c56a4bcd1bd74U,
  0x3e2b175d3e2ee86eU, 0xbde114773e2d9881U, 0x3d4bd8703e36f56fU, 0x3d6a089f3e1d4e9eU,
  0x3e2c95673cb4d911U, 0xbe26480fbdea59c4U, 0x3b88c4d93d49e21fU, 0xbdf6aae03d94dce2U,
  0xbb7c0bce3e4e368dU, 0xbdaac8a53e22381bU, 0x3c9b2a2abdddcf86U, 0xbcb4f7563e338e3eU,
  0x3de29c1cbd2292f5U, 0xbd583afcbdbd899aU, 0x3dd17c8bbd0309ceU, 0x3d22ed04bc999c15U,
  0x3e16c8fd3d18b7bfU, 0xbd85e8873dea1aefU, 0xbd99d97ebd9591cbU, 0xbda52fc8be06879eU,
  0x3e5082d83d1e6ca7U, 0xbdeacf8dbcf59c40U, 0x3d5d24813d3fd1dfU, 0xbd1a8dec3e7e120dU,
  0xbd6b93ad3d08fd95U, 0x3dd9e7fdbd3c343aU, 0xbe0145b6bd7f67eaU, 0xba9c39afbd84579dU,
  0x3db543b33da1f303U, 0xbca08f363d6c368dU, 0x3dc70c043e0dfe5fU, 0x3ddb679a3d9049aaU,
  0x3d2bd4503d871698U, 0x3d87e8ba3d9eb1b7U, 0xbcac80d83b4d1990U, 0x3e0a0d7e3ddc2638U,
  0xbcb2c24fbe003c45U, 0x3d2185173dd0e4bdU, 0xbab9526bbc2d932bU, 0xbdc874fd3c4dbb88U,
  0x3de829ce3db24bacU, 0xbd17f33b3d10165dU, 0x3d5f9ce3bdd7e557U, 0x3e0b617d3ddc2707U,
  0x3dd594f0be203947U, 0x3d8cf2eab9ea07f5U, 0xbe1ad873bd8e607aU, 0xbe743133bdbfeed5U,
  0xbd053032bddfcfe6U, 0x3d4d583bbb9721a1U, 0xbe845599be67d415U, 0x3bef999f3e26ed84U,
  0xbdffccfebe6fd612U, 0xbcd13bac3e33fb7cU, 0xbe1df629bb9bdaebU, 0x3de16a563e03c01cU,
  0x3d5080c63acc7124U, 0xbd8cf37e3e0b86ceU, 0xbe853b873e29ab06U, 0xbca5b4cbbe007f5dU,
  0x3e5d29d43e7438baU, 0x3e97c264bcab1d9aU, 0x3dbb13b63e1c7dfaU, 0x3d397d6e3e22fffcU,
  0xbe11b66f3db4ebb8U, 0x3ea11ef73d536faeU, 0xbdd34cc43e1a1485U, 0xbd4d62e5be8b6d56U,
  0xbe036ea13d819f78U, 0xbc90d400bca91cabU, 0xbe4f8d01bd90f482U, 0x3ce9fbb1be2386b8U,
  0xbcc20b1d3da96d95U, 0x3cb9ed6d3c96730dU, 0xbdca8b223c46cc63U, 0xbd4145ebbd662d2bU,
  0xbdbab06cbddfb8deU, 0x3d8639fbbd22c768U, 0x3e81e896bce261d9U, 0x3e6200393d26f990U,
  0x3d54a8e8bd15715dU, 0x3c819cc33ce0723bU, 0x3cc583523dcd2d00U, 0xbe682530bd9bf0e1U,
  0xbe266d213c9386daU, 0xbd68c4f43dc7de95U, 0xbc39e4843e21c60aU, 0xbdc17dec3dcb590cU,
  0x3d2b34a2bc91e8a1U, 0x3e79225f3d0b5e2aU, 0x3dbc34fb3ca6beb3U, 0xbd53509dbb9c4608U,
  0x3dc34a50bd7d1e83U, 0xbe5461b63ec491f4U, 0xbde4dd2bbd593beeU, 0xbc6707863c3e7175U,
  0xbd7bb5953ddccba4U, 0x3da882e03e6f7e95U, 0xbe842e7c3d285114U, 0x3ddf3db53e101756U,
  0xbdd031fd3dab85d2U, 0xbdf79b353eaee671U, 0xbdda27c8bc889957U, 0x3d90a92d3e59675fU,
  0xbc9edf283c5af697U, 0x3da149653df863dfU, 0x3dec499d3c908196U, 0x3e0de07abe47fec9U,
  0xbe3af4843db2627fU, 0x3c96c8f3bd01814eU, 0xbc9487cabd6cd04fU, 0xbc02c9b8bd3f51ffU,
  0xbc6f0ea13d934928U, 0x3d33ca34bdd9115bU, 0x3d9178733ce2c971U, 0xbdff125cbd95ed2cU,
  0xbd9acd763deeda4bU, 0x3dc0f956bd8dd143U, 0x3e8a77763e19aec0U, 0x3e05f73fbd02ac28U,
  0x3caa80aa3e283223U, 0x3e99cc3b3d292b5eU, 0x3e3f221d3e2b43e8U, 0xbdac8b873a70c8e4U,
  0xbdd8735c3dbd20c6U, 0xbd6b1c18bcf8f198U, 0xbda557d5bdff393dU, 0xbdbb28fabcbf3efeU,
  0x3c7ea5153d238379U, 0xbc969b74bddcbe92U, 0xbe4ad09cbd1ce178U, 0xbdd3b694bd02bd52U,
  0x3b5516a2bd8a24ecU, 0x3d57b9fabd4cb818U, 0x3ac6841ebd4a51ceU, 0xbe0273e9bdae4980U,
  0x3d34afe83e3825b9U, 0x3e22b2cc3e375e51U, 0xbd2e3f81be2f8f64U, 0x3e074ce0be594869U,
  0xbd40c9713dfacb12U, 0x3e2bef033e1bcdd6U, 0x3db5f839be056a47U, 0x3d70b3a2bc1e48f2U,
  0xbe5d2df3be1272fdU, 0x3eaff7d9bc8adfc0U, 0x3e894b103e301b7cU, 0x3e124678be81a575U,
  0x3ccdcbae3d3c9b50U, 0x3ddfc1e9be1037a2U, 0x3d3346febe0ee52aU, 0x3c4f79bcbdb90518U,
  0xbe29cfc33d0cf18bU, 0x3e36aae5bd8a4c92U, 0x3d835103be857126U, 0xbdbf5040be163924U,
  0xbb554244bb743509U, 0x3e2be1b83d4f4c05U, 0xbda97ee23d8532efU, 0xbe7256dabd4e9f9cU,
  0x3c9101b83dc0d8b8U, 0xbd64a2dd3de9fbe4U, 0xbd73080dbe892876U, 0xbdc2fc34be17f670U,
  0x3b4fd20e3decfc6aU, 0x3c9300823d369b1cU, 0xbde447163d74afa7U, 0xbea43be73cf2acffU,
  0xbc461cf93ddaa74eU, 0x3e8673b63dce678cU, 0xbe1d0075bd7ab012U, 0xbd8029fabde07d6dU,
  0xbdf32351bde8298dU, 0xbe02757c3ea10decU, 0xbd8198443d93b07eU, 0x3e0541a93dced6adU,
  0x3d1675f0be4606d6U, 0x3d9548e83e2c1784U, 0x3c9f13cc3e092bb3U, 0x3d95f4883d6e6caaU,
  0xbef1aa25bdef71c5U, 0xbedb4c4a3e38ab23U, 0x3da81f6dbe89d718U, 0x3d35ed333d90c9cbU,
  0xbd5a4a40be457f33U, 0xbda4d050bb5abcfeU, 0x3d9b48cb3e7c6f1fU, 0xbd883cf13dc289b4U,
  0x3dbdf476bd39f9cdU, 0xbdb3cd5bbe5af3c0U, 0xbc8fa3663db17a7aU, 0x3d54df0bbd8996feU,
  0x3c90ed623df7639cU, 0x3d7d0ed93e0507ebU, 0x3d9af1cd3d8ca76cU, 0xbcc0959f3e5c8904U,
  0x3d88a5d1be8b5488U, 0xbd9dd5da3c1b1fdcU, 0xbe5c71ed3d8a0e00U, 0x3e15bbaebd291e91U,
  0x3db1bbfd3e32c6aeU, 0xbd44ddf13c40b44fU, 0xbca98816be2f14fcU, 0x3e470f703e38a371U,
  0x3e0540cdbdbafea5U, 0xbe3c01a8bdcbeb20U, 0x3d4a51ca3de97b4aU, 0xbe2d0941bda2a6ffU,
  0x3c90502d3e98be83U, 0xbd7c81eebd876375U, 0xbe49d579bd6dfbb6U, 0x3e1bb34b3e29198cU,
  0x3dbab581bd2912f9U, 0xbe6e63d5be1d5137U, 0x3ddf83813e22f804U, 0xbe8c41cdbda3fb37U,
  0xbc8d547d3e655601U, 0x3e1546d93dc7ea00U, 0xbe8a050fbe046d3eU, 0xbde77240bd32f449U,
  0x3e8576403a54040dU, 0xbded3e13be155be8U, 0x3cfbd740bcee67efU, 0x3cf8c1023d8dd40aU,
  0x3d6828a7bd8b0e9dU, 0xbdfaa5bdbd883531U, 0xbe69fb79bdc81ec0U, 0xbec0e407bdbd5d1bU,
  0x3da13a843d034072U, 0xbdeca80c3df2da35U, 0xbe4351623de3c8edU, 0x3c4a273f3e73b7e3U,
  0x3e50703b3d723f98U, 0x3d119b933ab98f04U, 0x3db995f7be45110cU, 0x3e915b4b3d807971U,
  0xbd2ebf86bdafc25eU, 0x3d5d277cbd77c756U, 0xbe374e2cbc1d3942U, 0xbe35261d3d0f3567U,
  0x3dc4bba23dc0cdfaU, 0x3c70ab45bcda9cc3U, 0x3cee3eb3bd401eceU, 0x3c2789a23d941281U,
  0x3db728c03d27486cU, 0x3d105fa63cb74607U, 0xbe7bde1cbda68f46U, 0xbe71c2aebd6e0fe6U,
  0x3d12a9883db2904aU, 0x3d8aabc13cfcdd1dU, 0xbdfe7b1dbd9eba1eU, 0x3da518b83d1c21a7U,
  0xbd7818103cab2870U, 0x3e8f80bf3e4b0c8eU, 0x3d2be3593cf7c706U, 0x3e11f8133e4d95d2U,
  0xbdf8842abe145732U, 0x3e29d8483db9fa04U, 0xbd139a293e091a3eU, 0xbca9e932bd094893U,
  0x3cbdd60b3da74210U, 0x3ea9b9cb3e35e1a4U, 0x3e69cf3fbbf6c9c6U, 0x3dcf68773e9d6c76U,
  0xbdc81479bcfdbd8aU, 0x3e87d0483d82f912U, 0x3e73740b3e28a7efU, 0xbe9071a7be462016U,
  0x3e2c2e9cbe15f096U, 0xbd3e0af3be210929U, 0xbe402d7fbbe84c55U, 0xbbca7cb43dc56bddU,
  0x3df702023db2a7beU, 0x3cdfa6c4bd8376f6U, 0xbca152eb3dff646cU, 0x3e32281a3b7f84deU,
  0x3e0edb25be0d4b0aU, 0x3dddaef4bddb72fcU, 0xbe184487bdd02cb5U, 0xbcbfc16b3d58e357U,
  0x3e86b7ca3e86c4e4U, 0xbd7406133d2a282cU, 0x3da944d1bd0a790eU, 0x3e1d7e3abc947349U,
  0xbd1f2ff63c057e49U, 0x3d735de83d16923bU, 0xbe4909f33e2a3efcU, 0xbd95fbb93e53227cU,
  0x3da400a1bc42454eU, 0xbcf96420bbd89f7fU, 0xbdbc3b50bdcf1263U, 0x3d9daad0bdaa9634U,
  0xbde3b6723d8e5060U, 0xbe3b658b3edb003bU, 0x3d943d173e3ccd85U, 0xbdeab5383dd1df1aU,
  0x3dc8a383bdeb9f91U, 0xbd14eeeb3ea3d693U, 0x3e0cf8d73dc9233dU, 0xbbab811a3dbd887dU,
  0xbdaa34963d7f375aU, 0xbeb2c6003edf43c3U, 0x3e1c307a3e6f28d1U, 0xbd12b66b3e2489e0U,
  0xbe0f4cabbd63e5d2U, 0xbda4763b3e51e98dU, 0x3c7655613df66c44U, 0x3e7182813adf43bdU,
  0xbbe7475fbbfc8329U, 0xbca36625be6b17d5U, 0x3e3aa9d73d9e8a2aU, 0x3e033dd13d52e537U,
  0xbd23505dbdb5feccU, 0xbd08b78abdeafe5fU, 0x3db3c1d53e597a70U, 0xbc70d763bc36ed76U,
  0x3d724a09bdb6374bU, 0xbe0947d23d779528U, 0x3d63cbadbdd19d4aU, 0xbd666a43be2dd159U,
  0x3c195d213dff4867U, 0x3ca569b03cdbfdfaU, 0xbcd974de3dd3728cU, 0xbd4fe4a03e0e946dU,
  0xbdb4bf6bbd8d2b21U, 0xbcfbcd8ebe24108fU, 0xbdd641bbbda5e02cU, 0xbe758e18bd065399U,
  0x3df517de3e94e2cfU, 0xbd2ace7c3e03d7ebU, 0xbc1552f8beb34a55U, 0x3e38e7153dc5a1e1U,
  0xbe82d5883d97b13aU, 0xbb8fe4f5bd0a9c88U, 0xbd367aac3e08c467U, 0xbd551a1a3dbcee81U,
  0x3d60fdbb3d56b1d0U, 0x3d85e7453e1bfbc1U, 0xbde36361bb6c4e8cU, 0x3e05c84cbd0fbabbU,
  0x3dd16560be92d3f4U, 0xbd9542e7bce58184U, 0x3dfc19f4bcbab212U, 0x3d67a0a03d553676U,
  0x3d99dee03e0f364cU, 0xbe072c86be0cf2f5U, 0x3dc9282e3d760b9aU, 0x3d998f36bc0f07cbU,
  0x3d985c30bdce6fd9U, 0x3d878a98bd17db34U, 0x3d7dab5e3de11612U, 0xbd38bc153ca38596U,
  0x3d91c717be1a4d95U, 0x3e2c705c3dcdf23bU, 0xbdc9ab563e30b6e0U, 0x3da1eda23d86d419U,
  0xbe130eacbe352681U, 0x3c24a6efbb8177d3U, 0x3d6b6bddbd8d5e6cU, 0x3d23c243be47e288U,
  0xbbfc81d6bcb6b583U, 0xbe3372d7bdc57405U, 0xbd6b493cbe269104U, 0x3bbb12ef3e3e61afU,
  0xbe3095fb3d8f4c55U, 0x3e81356f3e3ee92fU, 0x3ccf92c4bde2530eU, 0xbcc09d8cbe16e055U,
  0xbdb1e32fbd59f693U, 0x3dd979dfbe28a6c0U, 0x3e4668e2bce9ce27U, 0x3ca3e56dbdcef0b3U,
  0xbe25d3d83ea0c649U, 0x3e90b5cbbd4f3829U, 0x3e1545aebe7d8ab4U, 0x3d080aaabd867742U,
  0xbdff0fafbd18b1f6U, 0x3d8ee95b3d8924d4U, 0x3c7456b83e6cd154U, 0xbdc8b4bcbe588dafU,
  0xbe3fa79cbc8b01d0U, 0x3c1e9101bddad342U, 0xbce71831be126766U, 0xbc9ffbc8be16db42U,
  0xbc4e98d8bdcebc02U, 0xbc04834cbe47bb7cU, 0x3bb8226dbd911015U, 0xbdab72e7be127bb4U,
  0x3c493f2fbd81a6faU, 0xbd45a072390b4663U, 0x3ce173b1be20386cU, 0x3c7aecfa3ba70386U,
  0xbe06ebf7be0a4070U, 0xbda885a23caa2c27U, 0xbd784a6fbe0512e5U, 0x3d7bd10fbe58d235U,
  0xbd8448b03d69ec6bU, 0x3db9f559bcbc2fb5U, 0x3da3c490bcd57104U, 0x3e0c39f3be4bdf04U,
  0xbd83ca4abd1ffd77U, 0x3ce22f83bdd36c17U, 0x39aa7eb0bc861be1U, 0x3d3092033cc5d6f7U,
  0xbe5e107d3e6bf963U, 0x3e34449cbe307189U, 0xbdf2f164be013829U, 0xbdd02dd43d6666fbU,
  0xbdfbf9253ddc7beeU, 0x3db1cb7e3d8560e8U, 0x3bcb77babe62ef28U, 0xbe02d94b3d7a8a77U,
  0xbdc0e41dbd9b1f3eU, 0x3d5c17fe3d8a2d89U, 0x3d589299bdc3f3f4U, 0x3e050683be074962U,
  0xbe12fe523dde4b8bU, 0xbe36b668bd969861U, 0xbd2d262f3e53088fU, 0xbd0d949abe6ba436U,
  0x3ccca24abd1369a1U, 0xbdc193c03ce621eaU, 0x3d7dc487bd416453U, 0x3e40e888bd0999ffU,
  0xbd305d643dfc86e2U, 0xbe27a50abe3a49fdU, 0x3cf89c4d3d59d2bdU, 0x3df57cddbcfbeb69U,
  0xbe8310edbd90a14eU, 0xbe6715423dc75df8U, 0xbd4763b8bde54a61U, 0xbdf349f7bd03f852U,
  0x3c1fd76cbe2545bdU, 0xbe544d28be2e3f43U, 0xbd18ee96bdfc1750U, 0xbd54b8bdbdc7deadU,
  0xbd601d083ded923cU, 0x3e0765adba94e0b1U, 0xbd84986abd52815bU, 0x3cc26c2bbdf90749U,
  0xbd26f1cdbd1c906aU, 0x3cd7025bbe0b33f6U, 0xbd98400dbd6e1119U, 0x3d547380bd87124fU,
  0xbe0c35e93c133f06U, 0xbd2f0ac5bd5b8255U, 0x3cf29693bd66105aU, 0x3c8d04d33dfec655U,
  0xbc49242d3d1150f0U, 0x3c1d067bbe148361U, 0x3dd08f62bcf95f6bU, 0x3d34690a3ba90fdbU,
  0x3d131536be1ae0fbU, 0xbea7cb363ddbef5bU, 0xbd236ebdbbd38620U, 0x3e53f4ba3d4dba24U,
  0xbe583533be6933e0U, 0xbe2ba53ebcac338bU, 0xbe8e666c3de2a876U, 0xbdacbba6bd90716aU,
  0xbe1a5b59be3739caU, 0xbe600a9dbe0f2573U, 0x3d474567bdff7800U, 0x3dd2ef03bcfb4ee9U,
  0xbe81ab0ebe284ca1U, 0xbe9a0ea83d5e1636U, 0xbd21dce53cc24d10U, 0xbdc002053b053757U,
  0x3de696ffbe4ba2ceU, 0xbe496a76bda9cce0U, 0x3d435deebbaac27bU, 0x3dd80024be157ff6U,
  0xbd65cad0be620e5eU, 0x3c4d80e6bde9b94dU, 0xbe0a08b03cbf6408U, 0x3db1e0c93bd5d9aaU,
  0xbdd08c26bc09235eU, 0xbbcd04a2bdce4429U, 0x3b040735bd7f6d58U, 0x3d7300003e59d4afU,
  0xbd4c61a1be6c5e86U, 0x3c825a433b94664fU, 0x3db6ed3bbe8adeabU, 0x3cf1bbe83e60236eU,
  0x3e52964f3dae9b9aU, 0xbdc6db413e137742U, 0x3d80121a3cb473c4U, 0xbe45ae59bc96535eU,
  0xbe39457fbe6f24dbU, 0xbd8b1cccbd9fd545U, 0x3bf6d0473c3e257eU, 0xbe93c954bde2f42fU,
  0x3e422cbbbb4c81caU, 0xbdfac961bd103901U, 0x3df991d73da35763U, 0xbcfdaabc3e0559cfU,
  0xbd40e7053dd0f68aU, 0xbe5933b63dbd68dcU, 0xbe0676c3bd16629cU, 0xbcb459ca3e320080U,
  0x3dffd02ebd7009a5U, 0xbe5adde8bdae3858U, 0xbdbf7c74bc394bd7U, 0x3afee8ab3b763664U,
  0x3d86ebefbdbd5ee7U, 0xbdeee9dd3dc83a65U, 0xbd9120b5be009610U, 0xbda85c223c8c092aU,
  0xbdceba47bca7922cU, 0xbbc862e9be886042U, 0xbd888a25bd72571fU, 0x3e0f1340be093d61U,
  0x3ddb986dbcbcc24dU, 0x3d7f7115bdc83caaU, 0x3e08e023bd61ad5fU, 0x3d4d537d3dcc32a5U,
  0xbe8a5b1b3c9aaea5U, 0xbd972e5dbe257ecfU, 0x3c84e17dbc85dea4U, 0x3ce2663a3e6a7f8dU,
  0xbd158b48be137f9aU, 0xbd7591793d071b03U, 0xbd791178bded95f1U, 0xbd9537373d971cadU,
  0xbce0aad8be087fcbU, 0xbd81d94bbcb1cdc6U, 0xbd711222bda2dc86U, 0xbe8e4ef33d22b796U,
  0x3da8e4253d8519c0U, 0xbda75d1bbe056fd7U, 0xbe1c2f0b3b5d8a58U, 0xbdc62ff0bdcd6470U,
  0x3cf8e731bd9c0d06U, 0xbddd2154be351688U, 0x3c92389b3d617160U, 0xbdf140e8bd0e93a0U,
  0x3e1f8650bdfeab39U, 0xbd15d0fb3d7f8649U, 0xbe0cfd09be08eb59U, 0x3b9b84fabe0c7042U,
  0x3c4799b5be12adeaU, 0xbe3a7a89bdba43fdU, 0xbde02e883ded0836U, 0x3d6e7525bce04ae2U,
  0xbbb703823d886484U, 0x3d22b1043d6e66b6U, 0xbd9cdfd7bd5885e3U, 0xbe0e8bbfbda8035aU,
  0x3d1179523d08f694U, 0xbcb48ef6bd55fc9aU, 0xbda458c6bca13eb0U, 0x3d64b6cf3e18c66cU,
  0x3da8034fbd49972aU, 0x3e07bbcabb77bb2eU, 0x3db753763d03073cU, 0x3db201163e09e452U,
  0xbe37ac99b8e620baU, 0x3da240803e2f4d22U, 0xbdc3a0263c3509c8U, 0xbd960f0d3d80a28bU,
  0xbdef41803d8fd660U, 0xbe02a1fd3aa2b5c0U, 0x3d8c379f3cabe7e0U, 0xbd45ca5bbe1d1569U,
  0xbdcbff95be7a16caU, 0xbe59ee33be20b8d2U, 0x3de9e2f5be19e53dU, 0x3e1cc9533d50c66bU,
  0xbe2d30483dc8bd82U, 0x3d385d27be0d5577U, 0xbe65e78e3dd54a6eU, 0x3de2d85abe148f34U,
  0xbcc755dfbcd21912U, 0xbd0a7a9fbdb180e9U, 0xbe673836bdab03d8U, 0xbe0f58863d26b430U,
  0xbbf8df963d403222U, 0xbdfd21b63bc3e460U, 0x3d80450bbd9016f0U, 0x3d0d1cb83d611ea9U,
  0xbe16ae74bd46a5fdU, 0x3d2901573d8fca36U, 0x3d0cfb29bbf20234U, 0x3d5a695b3d3a2bf6U,
  0x3e1077c43e29d85aU, 0xbe1dfd893d1466b9U, 0xbe1283803d810bd6U, 0x3e0f6161be52b114U,
  0xbc745c573d8257b8U, 0x3d1e46f73d999331U, 0xbdc46c4abd4d7bdaU, 0x3cb7470bbb833542U,
  0x3d300af5bdfff01cU, 0x3db14727b99c8bffU, 0x3d8e61013da477e0U, 0xbca8fe7dbcf2d3a6U,
  0xbdd70e38bd92651aU, 0xbceddfdbbcaaa5e1U, 0xbbeafaf83d8b7c11U, 0xbc3181c43d98d61dU,
  0xbd7e40733d826907U, 0x3d96ca033da9be06U, 0xbd40e1e3bd1a31a3U, 0xbd65f627bd081d4fU,
  0x3d202d38bdaf57edU, 0xbc9ff383bd9f290aU, 0xbaf30924bd3f77f5U, 0xbdf7de1c3d83e81fU,
  0xbddeb6713d9358b5U, 0xbd33eb683b6ffc16U, 0x3d51f10dbdb28bf8U, 0xbde37fe5bd9a68a6U,
  0xbd20a10fbdf67dcbU, 0xbbfd59433c8838b0U, 0xbd9a58823d3a48baU, 0xbcb4ab9bbccf359eU,
  0x3d8e68943d7049feU, 0xbd73d05ebcc22a50U, 0xbd24ad0e3d83a2d0U, 0x3d56a1fcbd82b917U,
  0x3da511903c9a5395U, 0xbcf5d489bda46e79U, 0x3d3cf817bdcdf0eaU, 0xbdb7e490bdc30464U,
  0xbdfa3d20bd85e838U, 0xbdf041ef3db97dfcU, 0x3db70309bd9665ebU, 0xbcc5bfdfbe10a592U,
  0xbdaf7fa5bdfe4626U, 0x3d1f0c3ebdf8ad1cU, 0x3d3e403a3d65c5d7U, 0xbd3828bb3daed654U,
  0x3dcb8272bd84fe85U, 0x3dcdfbbfbd70ea0bU, 0xbd7d022dbda628b7U, 0xbdc2c4b7bdfcf856U,
  0x3d95515abdcd8354U, 0xbdec01e1bc23c107U, 0x3b8b2cabbdabeab5U, 0x3d78b987be03c884U,
  0xbdf3dec2bdc44327U, 0xbdff37ba3dc39c3aU, 0x3d2b374abdef22b4U, 0x3ce294153d2bfe92U,
  0xbcde496abd957609U, 0xbd81f2f43c535ad1U, 0xbd8335c13d91d51eU, 0x3d488be2bd72652dU,
  0xbdd980973d6442c7U, 0xbd1520813cd56d14U, 0xbdd335473d2e1449U, 0x3db53e58bdff15ecU,
  0xbd4e3610bdd6fca9U, 0x3c6e950dbd654f1bU, 0xbda2e38abd24b243U, 0xbb8209dabceb25eaU,
  0xbb8501b63d0dc9acU, 0x3d89b13abd0801cdU, 0xbdf301993cf0dc0bU, 0x3babc15bbaa67ae1U,
  0xbcd8dec8bc9fb905U, 0x3d8cdc85bdac7a15U, 0x3c8624debe043a55U, 0x3d5a29da3d63dd27U,
  0xbd069f4b3c24dc21U, 0x3c81071bbdb5f0aaU, 0x3d0ae28fbc65a70bU, 0x3dadba013d6b1b6dU,
  0xbdee7482bd51fd3eU, 0xbdb3a9ccbcfc72acU, 0x3b377d323c0103bbU, 0xbd1a96483d574fdeU,
  0x3db8c6a6bd3dee1aU, 0xbd8d0b893ccf3275U, 0x3b7748e73dc5f897U, 0xbd195d8f3d270177U,
  0x3bc895b3be01189cU, 0x3d707db6bcf4b61cU, 0xbcf3c1b73c615f25U, 0x3db2feb03d8c4fdeU,
  0xbbe8bf4fbd954f9cU, 0x3bd6431abdd2f41dU, 0x3cd419aa3b88cd9cU, 0xbde307543c56902fU,
  0xbc11b6be3cd41e3eU, 0x3d96163ebe029936U, 0xbcb8ba8e3d969680U, 0x380133e0bd74e311U,
  0x3d6be8e43d18904fU, 0xbe00b01cbc087629U, 0x3c0dc34fbd41bceeU, 0xbdcd41223d3322a1U,
  0xbdd87a40bd2cffeeU, 0x3d8fb473bb98d0a3U, 0x3d28820d3d53febdU, 0xbd8a4a4f3d8d2da0U,
  0xbc3f82aebc390300U, 0x3d2a358e3d1a4cd3U, 0xbe0ad773bd43712cU, 0xbd17c6fdbdc1ea68U,
  0x3cc0d0c93bfd2b56U, 0x3d6e3e0cbda94f74U, 0x3d4f85c3bbbc5a5eU, 0xbddbd7673d8a8ef6U,
  0xbbca33d93d5c1a68U, 0xbd49430ebd481d98U, 0xbdd3585f3d88604bU, 0xbdc76d00bdd3f143U,
  0x3a83ce66bd4891cbU, 0xbc6477b43d8af205U, 0xbd60c117bddf872aU, 0xbd67b516bdb55fccU,
  0xbd0f7c803d3557e1U, 0xbdd6d007bcaf4a38U, 0xbd1d2e533dc6a96dU, 0xbbfb75443d67af30U,
  0x3c0f3901bd312fcbU, 0xbdb9e9ce3d894feeU, 0xbd4f89823bbd43f5U, 0x3d9c0a5c3d08b72eU,
  0xbe0adbe63b8e71a5U, 0x3d347261bdc81120U, 0x3d6098dcbd456ff4U, 0xbd8154d7bd639a3fU,
  0xbdc0c0d3bd8e7da9U, 0xbbdcf534bba7c033U, 0xbe0b0b313d8dc795U, 0xbdea34b1bd2aa59aU,
  0x3d99a033be108c3bU, 0x3d3e0bc1bdbd8c7dU, 0x3d8b98c6be1625deU, 0x3d14e658be16cc07U,
  0xbaa61200be024967U, 0xbe1174fd3dc7df36U, 0xbdf592a9bdec5949U, 0xbdfbfb30bdf3e490U,
  0x3bc0f79f3d8adf13U, 0xbdf8791ebe109359U, 0x3c3b12f1bd80d79aU, 0x3bd76e65be07e0bdU,
  0xbda19a87bb9cf884U, 0xbcad1d023d20e251U, 0xbd77b7c1bd90bdb1U, 0xbccbfe5d3d7a7579U,
  0xbc0d5218bd698e5dU, 0xbd8ff305bd9c865dU, 0x3d576fb83d2a10a7U, 0x3d82ef46bd6f088fU,
  0x3d5f6531bde50244U, 0x3db5175f3c9f02c4U, 0x3db4d0033da60827U, 0x3be4a389bd15a1afU,
  0x3d7952413d17e115U, 0xbda686f43d269978U, 0x3d31d185be054e3bU, 0xbcd48aadbc44880eU,
  0xbdb54f2fbdfd0718U, 0x3d834c91be0ef276U, 0x3d42ec77bbac8d81U, 0x3cdc73123d9c6817U,
  0x3dce0653bd955851U, 0xbd355507bcc5f8ecU, 0xbdafb13e3d2d6f25U, 0xbdf752fa3d6d669eU,
  0xbdfe9adcbdc99ab5U, 0x3cd5c2fd3dba89c2U, 0xbc5ab673bd8a91dbU, 0xbdcb8be93c45b8c7U,
  0xbda09fbabd8bb472U, 0x3d9cbb5ebca39538U, 0xbdb3c5b9bd900953U, 0xbde268bcbdea282dU,
  0xbd7ff9c43d15fb18U, 0xbdc844753ad9b86fU, 0x3d3a6bd13dc21f85U, 0x3d66886ebd18d38bU,
  0x3c32ec30bde141cfU, 0xbdd62941be0fd606U, 0x3d3c6e31bdb926e5U, 0xbc91ed13bd1d3ae6U,
  0x3d1ad2e1bda4e24cU, 0xbd6b1d39be10fda9U, 0x3d4acf3a3d7aecafU, 0xbd44f7c1bddff472U,
  0xbe068065bd8ce781U, 0x3d2ea64fbdac7375U, 0x3d98f5b3bc171aa4U, 0x3d8664a13da54aabU,
  0x3cf7f0c7bc05cdc7U, 0x3de339d73c7e0bc5U, 0x3dd9ec7bbd015a2aU, 0x3c451271bce421ecU,
  0x3d8067a0be077e47U, 0x3d902e0b3d3f3d2aU, 0x3dc59c00be211ebcU, 0xbd0b25783d148ba7U,
  0x3c1ec6ca3e8399f2U, 0x3de21b82bd89dbb8U, 0xbd8376593d8e61d8U, 0xbd9ef6ab3cea974dU,
  0xbdbd1463becc8d60U, 0x3c274857bd214536U, 0x3d35f6d8bdbffb5aU, 0xbeb835c03d3cc1eaU,
  0xbcb98afbbe258e24U, 0xbda96a983dc6a619U, 0xbe458ecdbd4009dcU, 0x3e15b029bcfdb752U,
  0x3c8612debdc1d927U, 0xbdc0034ebd84ef02U, 0x3c9c1326be25d37fU, 0xbd503f9d3c041474U,
  0xbda53a4abd911425U, 0x3dfae0393d9d25d2U, 0xbe5da164bd5086afU, 0xbe6344d83d3c2fe0U,
  0x3e0ef27e3cbd1186U, 0x3dbb70133d522368U, 0x3d08265cbe530310U, 0x3e247b203d53e1e7U,
  0xbd28af313bc883eaU, 0x3df1fd5b3e3174a1U, 0xbdd09bb5bd89b281U, 0x3c8670013cdd1254U,
  0x3e0344b03c3a9568U, 0xbe1133173d133e90U, 0x3db295c5bce26d71U, 0x3e8ba2bc3d4acf4cU,
  0xbdb4dc9d3dbf77b4U, 0x3d9c04c83da13f40U, 0x3ddd6e823ceb3101U, 0x3cae85f53dfb18c1U,
  0xbde18fa7bd9fbf9fU, 0xbc8cdf0c3df43707U, 0x3ce99c67be0c284dU, 0xbe1a92e3bd521703U,
  0xbba8531b3e0720efU, 0x3de918af3de1d4a9U, 0x3d320be13dad7bc1U, 0x3e927e463df90952U,
  0xbd8584f6be02f6d0U, 0xbd82083b3e242f0eU, 0x3deeb46c3e1020f5U, 0xbde349a13c4cacfcU,
  0x3ccd475abbdcf8f4U, 0x3b8dbda63d5eac8aU, 0x3e9b16503d537593U, 0x3e02d2f5bd767537U,
  0x3c831cd73e0d36b6U, 0xbdc50a05bc369685U, 0xbd1e9ba93e215579U, 0xbc263086bc0aa52dU,
  0x3e9231fd3e3150abU, 0xbdcbe54abe4ea2fdU, 0x3cc95cedbdb85e38U, 0xbeb672a6bd7d6498U,
  0x3e6185383e5fb6e3U, 0x3d83e7fbbd7fd9c4U, 0x3d872405be668fc4U, 0x3e2038ccbb0e8622U,
  0x3e5cffb4bbdaa723U, 0xbceda79abe0a428eU, 0xbe0761723d4a9faeU, 0xbe3d60b6be6f7536U,
  0x3e8ac2b33e361c38U, 0xbc083806bd3ce9f4U, 0xbe88ff72be160d92U, 0x3e3c7a263d62a8b4U,
  0xbe167a773bb24941U, 0x3e01c8d33e5e965cU, 0x3dd84b943de1f0f5U, 0xbe2ccf52bc872a50U,
  0xbd0170afbda8b099U, 0xbab563d03d074691U, 0x3dd5ee993e40dac6U, 0xbe6ff4f8bdce07b9U,
  0xbe4d11f33d9dcc78U, 0xbda42b183d600819U, 0x3e62cdf33d35b516U, 0x3e5650883de42cafU,
  0xbd5206f5bcee7e6bU, 0xbc3f2b41bc80430dU, 0xbd27ccf03e934508U, 0xbc98c089bdc3c87bU,
  0x3e075608bdcfeb0eU, 0xbe4315953d101c96U, 0x3e6eba31bdde07f2U, 0x3ea7b2d8bdf445b5U,
  0x3e1f59353da78208U, 0xbe106c513dbd5badU, 0xbe2786e53e664e98U, 0xbd60f547bcd921f1U,
  0x3d802a443d100133U, 0x3e0ec9cdbedf4da7U, 0xbe0bdf76bdac98a6U, 0x3e0a7a72bdb7f939U,
  0xbd8a72563e560483U, 0x3d88c16dbdff4fd5U, 0x3c95f582bdffe249U, 0xbdd90408be147d7bU,
  0xbb8a882c3e0d98f1U, 0x3ecfb05bbef0ecbaU, 0xbb9a7eab3c4cdb6eU, 0x3d7989733ddffb50U,
  0x3d2c76e63e630428U, 0x3e135ef9be316505U, 0x3dd1c12cbd02fcfeU, 0xbe878608bdd128d3U,
  0xbe2610613e37cc32U, 0xbda0edbc3e224542U, 0x3d71593c3d76bad5U, 0x3daacbb6bce07e7aU,
  0x3dbc39eebc502994U, 0x3e09f77abd1a582cU, 0xb99e16b5bc83943cU, 0x3d5b63d8be71c936U,
  0x3ca02303bd1230ceU, 0xbc91b7de3ab93d72U, 0x3e25594abd9b0388U, 0xbd6e91fabd5ce3d1U,
  0x3cd45f9f3d985459U, 0xbdacf4ffbdb68986U, 0xbd29f70c3dca54ddU, 0x3e3b4087bc9cef38U,
  0x3c545bbfbe599c1cU, 0xbd4fabbabcb00fd9U, 0xbc1b11823ce861baU, 0x3e63756b3db90fbbU,
  0x3de39dd03d140aa8U, 0xbd8700ac3d960e44U, 0xbca093013d1c19b5U, 0xbd7f77af3e261209U,
  0xbca2a36f3e971f64U, 0x3dd201e5bdd92420U, 0xbd928153bd03fc96U, 0x3dea569b3dfd5224U,
  0x3c74c161bdecb58eU, 0xbc75d3b3bd0cf6e9U, 0x3e3833b13d3d68fbU, 0xbe2e74653e1a584eU,
  0xbdc072793d3416c8U, 0xbdcd65b3bdb70973U, 0x3cf7c6a5bcf57271U, 0xbc8d34dc3e0a7023U,
  0x3cdac6c3be2d9a13U, 0x3cfa3b5e3e54ef87U, 0x3e2f3dc6bd9e655bU, 0xbe499a6bbd329b1aU,
  0x3d9bf8acbddcd004U, 0xbdfb59723c77d7f4U, 0xbd2b3d62bd8adf3bU, 0xbe4a4097bde1e51eU,
  0x3d30ffaa3df518a8U, 0xbdb1457fbd1f31b0U, 0x3ba6cc443d3fba67U, 0xbd28242cbe725d73U,
  0x3e1b62c63dacb76fU, 0x3dc04da5be558ec9U, 0xbc9603cb3ba7cc32U, 0xbd3883fcbe0c521eU,
  0xbc5d2e423dc2ec65U, 0x3df46060bddc2c01U, 0xbe58537dbe055f91U, 0x3e132f25bd196de6U,
  0x3e028e143cef599eU, 0xbdbaadbabcfa8b8dU, 0xbdf747523de40314U, 0xbc59a9913c9f7f9fU,
  0xbc0596f5bd5f4f42U, 0x3e1552fabb728c33U, 0x3cdea8fdbdfeda4eU, 0x3cb026c43e07d86cU,
  0x3c8bbf243d8c7bebU, 0xbca2b8eb3e49fd61U, 0x3d2ca97f3d559bc9U, 0xbde2c9133e0f2ae6U,
  0xbc292f5bbc6c5d29U, 0xbd9b43b2bda8b8c9U, 0x3e42c2c23e2009ecU, 0xbbd0675c3bff11f9U,
  0xbe8004c1be252f92U, 0xbe4a16fd3c3f3485U, 0x3bf6cd1cbd46f70bU, 0xbd4b2b59be08908bU,
  0xbcdb1daf3c90b5e9U, 0x3c9d023f3cc93233U, 0x3e0f1314bc7a8f16U, 0xbb9b45333e5a0c15U,
  0xbdd4f00b3b1c8187U, 0xbd64964dbc247df6U, 0x3d8283f03d81b379U, 0x3d919ec3bd9ed7faU,
  0x3c6c65e33dcad797U, 0x3cd06725bd5d6a68U, 0x3ddaa03bbde11016U, 0xbd0637e63d9304bcU,
  0xbb8cc8043ca27201U, 0x3d165c693a1e2ac5U, 0x3c5aa788bdab38e2U, 0xbd6794453ca1bba2U,
  0x3dba3643bd1a231aU, 0x3d0b5544bdd7d6c6U, 0xbd8d1869bda38906U, 0x3dde74b0bca57ba8U,
  0xbdbf63fb3b617ed1U, 0x3d9270c3bd7657f9U, 0xbd353a3bbdd00ba7U, 0xbde710a83d5f189dU,
  0xbc0dd20a3d5cb02fU, 0x3c0df2d5bcc6f8fcU, 0x3d14c6d33d873aaeU, 0x3d73adc3bd01f12dU,
  0xbdb7109fbc9f8a6bU, 0xbb0b0a0abdcdcab6U, 0x3cc7f3fa3d07ff73U, 0xbda12dadbda09bd0U,
  0xbcf4b9613d1d9688U, 0xbde83a6bbc37f1f7U, 0x3d3c82083d9dd3b2U, 0x3d4e47b0ba3e1f0fU,
  0xbd103c83bd98351dU, 0x3ddbd5663c830a35U, 0xbd756dbebcd2ad73U, 0x3cdcee833d2de81cU,
  0x3c442b3b3cc7c082U, 0x3db049cdbdb7b384U, 0xbd779d30bdce6102U, 0x3d9baa5dbdc56babU,
  0x3d1ea98fbda441c5U, 0x3d6e8d25bd3f2a4eU, 0x3d9a25e5bde46338U, 0xbe1af5fbbdc31b35U,
  0xbda6bcc2bbf6faf1U, 0x3c6c01ec3da689c4U, 0xbe0a1ea73cab60ebU, 0x3d9d4000bdc7e114U,
  0xbe0273fd3d234e77U, 0xbd8cb8d3bd9da1caU, 0xbc9251bbbd9f95ecU, 0xbdfbe4dd3c00b9fbU,
  0xbcf2b0003db58175U, 0x3d92a4633c7c24c5U, 0xbd3830e2bd33fdc0U, 0xbde76a3f3d1a0925U,
  0xbd79d50fbdd52641U, 0x3d49d360bcdd487aU, 0xbcf54696bdb31d26U, 0xbde29153bd0e4df2U,
  0xbd15a4b9bc654effU, 0xbba2c7c0be09f69eU, 0x3c6a1f5d3d041c94U, 0x3b9b300d3d9421b2U,
  0x3da0306ebc247b8fU, 0xbdac90c7bc04b34bU, 0xbd71b29a3d455a15U, 0x3c7f6baebd8cc5e2U,
  0xbce10dd33cebbbd6U, 0x3cf820ee3da1a0a2U, 0x398f803abddf2ca1U, 0x3d08ee5dbd611d20U,
  0x3cc84504bd83ee4bU, 0xbc79244abd56f899U, 0xbd500561bc9ec90aU, 0xbc856e5cbdefe9a9U,
  0xbda82ab7bdccb44dU, 0xbccc93823ca745fcU, 0xbd94ae6a3d1011ecU, 0xbddd750abc9bdbb1U,
  0x3d8edd513db52a94U, 0xbd2bfb8a3ded34e5U, 0x3dbcccb4bd67ce97U, 0xbe064519bd0926b8U,
  0x3d20ebb73d55650eU, 0xbdea1205bd412f4dU, 0xbe15eb51bc3f32bdU, 0xbb8842d6bce2f91fU,
  0xbcaccf6fbd0dddb4U, 0xbe1852ebbd124c7fU, 0x3d05d9dbbd0eb1f9U, 0xbcd8134b3ca49f10U,
  0xbde919e03b378924U, 0xbdf68520bc419904U, 0xbd39e5383a999ba0U, 0xbd372c023ce74439U,
  0xbe202f02bd975e7fU, 0x3d7174c1bbd59b04U, 0xbcd418acbd154cc3U, 0x3dcb93c9bd8dc977U,
  0xbc4c294abdd1de85U, 0x3dc2f260be006a44U, 0xbcdd414dbdc7f133U, 0x3dac9c70bda42c07U,
  0xbddc04d63baa0ae7U, 0x3cfe70aabdccf214U, 0x3cfd09623d9ce25fU, 0xbdc1595c3d01f13cU,
  0xbd461903bc33212bU, 0xbdeb172ebb675646U, 0x3da24373bdc9be38U, 0xbd5f96d43d46a09fU,
  0x3d7624613d965a62U, 0xbd53964bbdb1640dU, 0x3d53a9753db4af40U, 0xbe00f720bdee7bcbU,
  0xbd3e33ebbd746a3cU, 0x3c9c7d67bd03dbf6U, 0x3d8a6956bd81cb62U, 0xbdbde0163d4fb446U,
  0x3dea8a8bbdeba24fU, 0x3d56fe6bbd3c0e24U, 0xbd8e2c6bbdea981dU, 0xbe01fc83bcb52126U,
  0xbde55e8c3ddf5fb4U, 0x3d2e33ab3d5d911cU, 0xbd2ea64cbce4285fU, 0x3dc74521be0b5438U,
  0x3d486c3ebe03e099U, 0xbd9a7d983aaa5872U, 0x3cab20933cc015dfU, 0xbde0c97cbcf1fcaeU,
  0xbdf55ababd6b95d1U, 0x3cbad48a3d1788e9U, 0xbbb66457bdbacf10U, 0x3bb047c1bda8f8b2U,
  0x3da1ad23bd4256b6U, 0xbac49d423da738b5U, 0xbe15ae773d6e326aU, 0xbdbb4f10bd8392a5U,
  0xbccce52cbbba6430U, 0x3d9971d13d0264edU, 0xbdecf296bddb3c98U, 0x3da453bc3cea29c7U,
  0x3cbf675ebd7d6f8cU, 0xbc957ce5bde17316U, 0xbdcf7496bdfb1f72U, 0xbca0bd96bded45daU,
  0x3c02dea33cfa3febU, 0x3d63444c3dbbba8dU, 0xbd3a9853bdefbb2aU, 0xbdab330b3d6b771dU,
  0xbc823349be031173U, 0x3d153780be1d5285U, 0xbc86f4f5bd3b0d8aU, 0xbcb024aabde74164U,
  0x3d5061c43cb9235bU, 0x3d9f1b77bcb80195U, 0x3d9434c2b8fd21acU, 0x3c240e923cc0aac9U,
  0x3d96618f3cb28878U, 0xbe0d35d3bd80087aU, 0xbd95733fbd7fb77cU, 0xbcb1fd3f3c6eec4aU,
  0xbbcd70fdbd24cc71U, 0xbda971113d45c87fU, 0x3da6aa18bdebbcefU, 0xbc850847bba0a4c1U,
  0x3d1327613bb78eddU, 0x3cf917fdbdd02a79U, 0x3b9da0da3caedb87U, 0xbddd9c1abd1b6bb1U,
  0x3c97a8e9bdcb7718U, 0xbd165e173d825b9cU, 0x3d3d96843c869e71U, 0xbde08f87bdb0eb9dU,
  0x3da970e4bd4bd109U, 0x3d2acae23b14afb7U, 0x3d063580bd0f0237U, 0xbd6a86dd3ca9e9f5U,
  0xbd4bb3743da94935U, 0xbd91ac62bda34ef0U, 0x3b5eae6e3d81a7e6U, 0xbd58d051be13b6ccU,
  0x3c9b6534bc7d3ad3U, 0xbcb9f6c2bdb390c9U, 0xbd390a8739fe4a07U, 0xbd8b4a5a3cf597b5U,
  0xbdda8fccbd2e781cU, 0xbcaa0dec3d8fb0e6U, 0x3c8839eabd896c44U, 0xbd86ca7cbdec21acU,
  0xbd6ab97c3d25e7d9U, 0xbcbf97dbbc2d2bbfU, 0x3d80f91c3b3d8d7bU, 0x3c823dd73cf14168U,
  0x3c9ff1aabccaf25fU, 0x3ca1bcd3bda20a8bU, 0xbda4f798bd434df1U, 0xbd4f10e539647547U,
  0xbda4cbfb3e66d346U, 0x39e7536c3e25e949U, 0x3e1d01dfbe3e91b0U, 0x3b209eaebce7ad24U,
  0xbba011afbe23bc63U, 0xbe29d7283ccc0cefU, 0x3e3e5e0bbd8c541cU, 0xbcd4cf32bdbbb129U,
  0x3c9dfe063e36755eU, 0x3d42650a3eb321adU, 0x3d84ede53cd2ac40U, 0x3dd74232bd2f62a1U,
  0xbe476173be9f1c35U, 0xbdb33837bd4d4ea8U, 0x3d5e96e73e8993c4U, 0xbe49b94cbd37149dU,
  0xbe22e7ac3db43485U, 0x3e20cc2d3e284610U, 0x3cb3adc4bdeec2a2U, 0x3df7a8c83d969ee1U,
  0x3d58286bbe04584dU, 0xbda25d51bb2eb068U, 0x3e315ad63e486d27U, 0xbd27b5523bdf0e8dU,
  0xbc8ebb6ebd78ad65U, 0x3e9771bc3d9662a6U, 0xbe818316bd0b6f32U, 0x3d8bc8eb3dd7be6aU,
  0x3c8cee8e3be06221U, 0xbd9319523cec2129U, 0x3e9390393cb06aa5U, 0x3d82df6e3e5a7fedU,
  0xbcfaff60bda021f1U, 0x3d865cad3d6c6bfeU, 0xbe242e823e380512U, 0xbd8d420fbce1fb2bU,
  0x3db4e80fbd3dde96U, 0x3d93e0503e1d4574U, 0x3e136d743de3bbb7U, 0x3eca992b3e7e5666U,
  0xbd8fd8dc3e1dd248U, 0x3e4db3cebdc2b926U, 0x3e7ce03d3c463554U, 0x3d873333bcb22cadU,
  0xbe3ef892be3cb2a9U, 0xbdd9857c3d2a1380U, 0x3e552654bdb0bca4U, 0xbe44054b3cadd6adU,
  0xbc03655c3d48ae6dU, 0x3e33e2993e1ca8bcU, 0x3e207978bcd864ddU, 0x3ece2fa63d2e8805U,
  0xbe1a508bbe0b4138U, 0xbda09283bdc574a0U, 0x3e39d1393ddf479dU, 0xbe4703313dc2caacU,
  0x3d2e86f43cb2283dU, 0xbd7d9e08bc4fecf7U, 0x3e403bc3bd821d0dU, 0x3e38e6d43c73e073U,
  0xbdfd1581bd9d29aeU, 0xbcf16e15bd1ef4c3U, 0xbd059f9d3e10be34U, 0xbe0931123e31dc1fU,
  0x3ddffc24be509baeU, 0xbea49a2d3e1dda27U, 0xbdc63c193d378ec6U, 0xbe1825cdbdf068faU,
  0x3d9f69bd3e0a1cf6U, 0xba6d0c82bd57aba3U, 0xbe2744373d21f501U, 0x3e395dfc3e79e15cU,
  0x3e44fc883d945badU, 0xbddab7d4bdf9e172U, 0xbe319b54bc7fdd08U, 0xbe073824be2d5a4dU,
  0x3e25fd2e3ecc7e6bU, 0x3ccb30063e190df8U, 0xbe795885bdb33053U, 0x3e8130f23e2d1f20U,
  0xbe3874d13e3ab35cU, 0xbccc3486bdbfcef0U, 0x3d8ac0053d28a905U, 0x3d68df3c3dcaeecbU,
  0xbe0b953dbe95bf80U, 0xbc5cad693d5b1628U, 0x3e37f00abe1e1b92U, 0xbe9ce29d3da9fa4bU,
  0xbd8179223ceb853cU, 0x3de9baeb3d7b0413U, 0x3ec7c30a3ce4669aU, 0x3da97e863e40a644U,
  0x3c001bb0be6f1319U, 0x3e6954543dd5b7cbU, 0x3dd9c6f13e5257daU, 0xbebe0718be267be4U,
  0x3c250415be22dd29U, 0x3dc5cd093d98e2c9U, 0x3e045431bdc03065U, 0x3e02a5d2bda09febU,
  0xbdd80e9abd2c7816U, 0xbdc3ddee3d9501dcU, 0xbda8460a3e2de16aU, 0xbdb2bf7ebd54f53fU,
  0x3cdb664ebdcdfd75U, 0x3dc3557ebd5ddec8U, 0xbe17186abd9317a4U, 0x3bb14ababd9e7423U,
  0xbde191503d457d1aU, 0x3e05a7b8be2bbbbbU, 0xbc8dbf483d9d0799U, 0x3e7f600e3d39e85aU,
  0x3dcd95f73e319b52U, 0x3e8d804fbd8e298bU, 0xbd0da16fbd573ac7U, 0xbb9fdc27bc2a5c97U,
  0x3e97f83c3d40ade7U, 0x3e05ab173cb3bc17U, 0xbcaaead7be3127c2U, 0xbd016eb6bd369409U,
  0xbe2325123e1436a1U, 0x3e08a9d33e4810afU, 0x3dbc44ad3c6a81c9U, 0xbd9706123e0b5c03U,
  0xbe07f0b83d85b693U, 0xbca8c0273e2fbb92U, 0x3d239a99bd0c9ffbU, 0x3d2d0a7dbb826a61U,
  0xbe1942fc3deb7bd2U, 0x3e07f7cc3dea6c41U, 0x3e6e592cbca595a6U, 0x3d18b6503d66fde5U,
  0xbca5a153bdb7e562U, 0x3db0ca0e3caff579U, 0x3e49833b3e3fea34U, 0xbdd7b2ccbe430a04U,
  0x3cf39a6e3da0ab35U, 0xbe45a3febbafc708U, 0x3e88779abd0aa9e1U, 0x3ea9bded3da1e8b2U,
  0xbdea0e19be12f2ebU, 0x3e1bc59ebdea5ceaU, 0xbd9c14f03e075429U, 0xbe356e2a3e1327aeU,
  0x3da5d8113e6571a3U, 0xbb8f05643e87f25eU, 0xbe31a893be26fbd9U, 0xbdbe443fbe1e07f8U,
  0x3d8709c43d8d3f62U, 0x3e4d474d3cdc7b79U, 0x3d1b1eb1bd02e01dU, 0x3dc9af21be36f283U,
  0x3cb9f460bd94c565U, 0xbd02dd963e2c4331U, 0xbd39ea29bdf672dbU, 0xbd8fac153db1d7a1U,
  0x3d760672bda0fa3fU, 0x3e82f5793e0156f4U, 0x3bcba7c23a3ca078U, 0x3daf5a25bd3f0a93U,
  0xbddd564e3cd8fff5U, 0xbda176573d1a0937U, 0x3dcd02d1bdf1602aU, 0xbdee19d3bda9950fU,
  0xbe186a98bc5bbe0dU, 0x3c87c7efbdaeba7cU, 0xbd574ac63d334952U, 0x3c9ed1d9be009a20U,
  0xbdb8d3143d8e638bU, 0x3e75a4ed3cbbb998U, 0x3e27c323bbdd164fU, 0xbdd63797bd972abdU,
  0x3d0eebe43e16b048U, 0x3d8dbf323dad55caU, 0x3d5b3bba3e1baaefU, 0xbe56439ebf07eab3U,
  0x3e7208023e2527a4U, 0xbcf23f72bce7f90aU, 0x3d7fd1883e3465fbU, 0xbd2c99163df43794U,
  0x3e1f507a3dc4a57cU, 0x3dad91373dce3275U, 0xbe93b6da39567420U, 0x3d4e3eb7be568567U,
  0xbdb95e75bea4b977U, 0xbe7afb113e0b47b5U, 0xbbec507e3de593f3U, 0x3d6bce3f3e11dd51U,
  0x3ceff6edbd1ffe80U, 0xbe03ac673e3404d9U, 0xbe7f1bf83e3cce1bU, 0x3da8f2493e1c1c01U,
  0xbe057d54be3772d0U, 0xbe7ad3023dae1662U, 0xbd43373fbe202188U, 0x3d8a0ead3d6e373aU,
  0xbd5551d9be114f34U, 0xbde868c83c741186U, 0xbd5ec3fb3ddb0003U, 0x3dfc4ead3e7b37ecU,
  0xbbd126e83c8c8e4dU, 0x3bbc52403ce266a9U, 0x3d5a948b3d81715bU, 0xbdd4b8c23d82bd52U,
  0x3db6cdb53dd33653U, 0xbd9457e33dc73929U, 0x3c871fb23de6eee7U, 0xbdc2c1253dab9b1dU,
  0xbdf9d668bdfd069bU, 0xbcca5d89bcc22cd9U, 0xbd9d27c43cf1e68fU, 0x3cc675363b47b908U,
  0xbd7b27223dc372c4U, 0x3d53607abdaa7e50U, 0xbd0748ff3bed1272U, 0x3d9ee7acbe141697U,
  0xbdd1cb3cbd24f1f8U, 0x3c8a9e74bba5df2dU, 0xbc73e052bd485d49U, 0xbdd85e403d1ad9daU,
  0xbd80114c3bbd7fa7U, 0x3c0102953d9ef64eU, 0xbcfb9632bc50387aU, 0xbddb461b3ccad683U,
  0xbd289dc3bdb93d4eU, 0x3db99fca3dabb0beU, 0xbc00ec7bbd741afeU, 0xbdc66e763cf09e0eU,
  0x3d9af9adbdd39918U, 0xbd93a7e33d9f6cc5U, 0x3db6fe313c9f33e9U, 0x3c44475e3d86c060U,
  0x3d44bc20bdde6f40U, 0xbdca53aebdc39018U, 0xbd3c9656bd1a3ac9U, 0xbdf8d717bcaa0a80U,
  0x3da3dfb43cdd8816U, 0x3dcadda3bc69dea0U, 0x3d2d2659bc067c9fU, 0xbc5fc29ebd41c8f2U,
  0xbe17c22f3d47e75bU, 0xbd9847863d8f5c44U, 0xbdd93f363d92e54eU, 0xbdda6fa13d703becU,
  0x3d13a89abcf47ce9U, 0xbd4d45893c865e96U, 0xbc3cfc1fbde4380eU, 0xbd83d31cbe0bdcf0U,
  0x3be5a67dbc8db2d8U, 0xbdc743553d6122e3U, 0x3c28907c3dceffd6U, 0xbc625c7fbdbd9d26U,
  0x3d0ab60cbdbe35d2U, 0xbd441a483dae1b94U, 0x3d129768bde0027bU, 0x3cd74c71be0b1847U,
  0x3d98623cbdbde853U, 0x3d80ba8abdfe82d5U, 0x3b9e151e3db8b453U, 0x3da54f23bdb91407U,
  0x3927a9d1bdc71492U, 0x3cdc171dbdbd1917U, 0xbda50ccfbd847837U, 0x3d1306b13d333a15U,
  0xbda3d1823bb8a7cfU, 0xbd6af62ebdef0505U, 0x3bd9fe063d62a968U, 0x3d9d3fc3bdc07985U,
  0x3d2969753d808ec3U, 0x3c1310c7bcca375bU, 0xbdd9cbb03b115dc8U, 0xbd14405b3d5f93e8U,
  0xbe02f1d43c45e2e6U, 0x3c9f38adbce92f31U, 0xbd68fb19bd829e6eU, 0x3ceb67ce3d284063U,
  0xbd87a62f3d448fc4U, 0xbd4c84f0bdc91ad0U, 0xbdadf54cbccce8a3U, 0xbdc73432bdf5be2cU,
  0xbc935f6ebde6a9a2U, 0x3d226e1c3d40c7c2U, 0xbdf7d18a3db75172U, 0x3d8092783c5cb88cU,
  0xbd7ddf403db3ad86U, 0x3c3a224cbdba6f4dU, 0x3d1fb13abc892295U, 0xbdf1badbbda4950eU,
  0xbdcd2e713c91eb50U, 0xbc61a2253d909b1fU, 0x3cccca8fbdd25512U, 0xbdeb33bd3d254ab0U,
  0x3c9c784f3d096104U, 0x3be23dc5bdd15236U, 0xbdc0f7f23da14879U, 0x3d9328933cc50aceU,
  0xbdd973213d93bb4bU, 0xbdc4c46cbe0965e3U, 0xbbb1e4903c7506b3U, 0xbdf68cdf3da88a6aU,
  0xbd8b0c10bdd5bd02U, 0xbd625aa83d36669dU, 0xbdc722b73db73665U, 0x3daddb0d3d1e5e5bU,
  0xbcbbd32c3d79f03bU, 0xbd48731cbd8e22ccU, 0xbd4011c8bd4d62f6U, 0x3b1701f3bcef8129U,
  0x3d1927a2bd9e674fU, 0x3d412183bd1b350bU, 0x3d423b613da524e0U, 0xbdf9d97e3dc4141cU,
  0xbce419243ce7289eU, 0xbdb6f1c4bd945c66U, 0xbd8f754ebd8ddf62U, 0x3bf94d963ad997edU,
  0xbdc865153cf51519U, 0xbcbec350bcc01386U, 0xbdeb939dbd9f657eU, 0xbd8003b4bd707fafU,
  0xbd0702a5bde20a3eU, 0x3d936d403df95aa3U, 0x3d07a4f7bd3433a0U, 0x3dbcedb5bd9a7d50U,
  0x3cbc2a48bdba3e22U, 0x3db3d65bbe03d4d4U, 0xbc974681bcd5ef9fU, 0xbcb4498f3db0b011U,
  0xbe24f3ef3da2fe4cU, 0x3d53b0f7bdcf2984U, 0xbd9a800abdd73226U, 0xbd8481843d216075U,
  0xbcdc5767bd5a8051U, 0xbd3f1e2d3d626d12U, 0xbde555bd3db17ad7U, 0x3c9eabd83d1b742eU,
  0x3d8c24d23c70d18dU, 0xbd1e31b33cc14bbaU, 0xbd8d1cd6bdb2768dU, 0xbd8b898f3c95dd65U,
  0x3cb74db93cb52709U, 0x3d5e32833d9d59acU, 0x3d9803fcbdebe817U, 0x3d92afdf3b2ba59dU,
  0xbe090488bdebd5a8U, 0xbd074776bc75569cU, 0x3baba68abc91d6d7U, 0x3c9c314c3d8ae19dU,
  0xbd5f7136bdb46a30U, 0xbddf4e953d6f9f93U, 0xbdd8c18abdf56946U, 0x3dafaf10bd7117ffU,
  0x3da41aa33d0098d6U, 0xbd0b2935bda01cecU, 0xbc99765b3c0ba82fU, 0x3bd04ec83d851f7cU,
  0xbdc7c8dbbda9f16aU, 0x3b828fecbdcf9eabU, 0x3dbd635fbde8f0f8U, 0xbdda57fcbd6ecaf8U,
  0xbdb248fabd11ecb7U, 0x3d07701cbc23eb6dU, 0x3cfb271a3d63512cU, 0xbc6418123d717e92U,
  0xbc6e07543d43334bU, 0xbc8bc516bdc49a6aU, 0x3d9d49053d0ec5fcU, 0x3cba26dcbcbe7ca3U,
  0x3db6c2bbbdc193a0U, 0xbaa238383d0e6d5aU, 0xbd7aa5ab3c071a17U, 0x3da61964bd45da3eU,
  0x3da1a45ebe0a1061U, 0x3cd6565d3d93502aU, 0xbc6d4648bd37dfeaU, 0xbcd8e18c3d874dfbU,
  0xbd4dca7fbc8f8420U, 0x3ceaa22e3d313b79U, 0xbcf08cc8bc1974faU, 0x3d92df313d30eb9fU,
  0x3db377703c65bcadU, 0x3d772e78bd929952U, 0x3ae900033d24e3a0U, 0x3d7aa1e5bdafc7c5U,
  0xbc329dddbdf57173U, 0xbd85bc7c3d297c99U, 0x3cc18a1fbd8d5bc3U, 0xbe0c844f3d998033U,
  0x3db672fb3c69913aU, 0x3d41f4843d8aab77U, 0xbdfdc85ebdd316b0U, 0x3dae17b6bc9e9c9bU,
  0xbd53a4e4bd686221U, 0xbdf8654cbd1f0efaU, 0x3c81cf5abc30ec56U, 0x3cf053cf3b4a4fb0U,
  0xbe0aa6f93d98af71U, 0x3db9d25bbd84971dU, 0x3dd28e57bd9bb290U, 0x3d07a1ecbce14481U,
  0xbb49a898bcf018b4U, 0x3c750787bdd29c75U, 0xbdb7612ebd9b80dfU, 0x3c953540bb8afccdU,
  0xbc8a230ebcb9e37bU, 0xbddb2a11bcf3da50U, 0x3da5d3763e2bdac2U, 0x39522ab4bb0475abU,
  0xbd5ac67bbe1cb02dU, 0xbe62cd19bebb165bU, 0xbed79c423e4cff5aU, 0x3cab21343e34e5bbU,
  0x3d243aad3c47a00eU, 0xbb62edfcbc3360b4U, 0xbdfc71d4bea8056aU, 0x3d795c793bec2863U,
  0x3d227d02be345c3eU, 0xbe47900ebe06962aU, 0xbe4f7dc53e136d08U, 0xbe287c0b3c5d1b1eU,
  0x3c468c843d0686ceU, 0xbc6f4b3cba3d14fdU, 0xbdab78efbeba1237U, 0x3d09e6c8bd231b41U,
  0x3e2afedbbdffbf8aU, 0xbe4ab7acbe145056U, 0xbde2097a3e6768a1U, 0xbea2c9293e3bca76U,
  0x3df073f03cfc6484U, 0xbe168ef93ce8347bU, 0xbe558bffbe99e2edU, 0xbdc0fa8c3aec5c12U,
  0x3dbf11093d0a3ffbU, 0xbe4bc210bd5d1614U, 0xbd05aec23d930018U, 0xbdd04dea3d966ef2U,
  0xbd8566c83aae4d2bU, 0x3c3136d339b3be1cU, 0xbebc8df8be46de86U, 0xbe2c4b9ebda007aaU,
  0xbdcbd3aabc75f975U, 0x3cd450d0bd469598U, 0xbe8639c33d36f52aU, 0xba93bea33d9266e8U,
  0x3dab4fbfbe1e9e5aU, 0x3d290576bcbc78a2U, 0xbe0dab70bc9c5612U, 0x3e16e288bddee2b1U,
  0xbd935302bd78c05cU, 0xbcd5e457be073541U, 0xbe7cf8093db08d6aU, 0xbdb5e8dbbd28c1edU,
  0x3e49a5293d3cc965U, 0x3d3abca53d8af243U, 0xbd0debfabdcbad6cU, 0x3e8dfc023e1b3e2bU,
  0x3dc2f8babd67fd6eU, 0xbca7058cbdb9f603U, 0xbe334cae3dbf4ca7U, 0xbe50ec5f3d95b709U,
  0x3ddbd27a3c969ae9U, 0x3d2e3ecc3e0b280fU, 0xbb9a5618bdb12852U, 0x3e2e19aa3df8eed9U,
  0x3e3c967e3d1b5610U, 0x3df7f1acbde22e50U, 0x3dab0cef3de2dc0cU, 0xbe0091053e1706cfU,
  0x3dc7276e3d581badU, 0x3c184011bd5312e2U, 0xbe3acadabd83cd3aU, 0xbce5d3f3bd6cab7aU,
  0x3d9050d03d819c0eU, 0xbd97da38be22770bU, 0x3e1c38db3e0c966dU, 0xbccb8fad3de58288U,
  0xbdba1a45bced3f64U, 0xbcec7a023d8a4554U, 0xbe8c0ca0bdb5d0fbU, 0xbd2aa8c0bed42f6dU,
  0x3e2fd966be0fa822U, 0xbde3c482bd889bc3U, 0xbd124932bdf2537eU, 0x3d5362183dc643d7U,
  0xbc5f884dbca9b94cU, 0xbc9076b03dc5673dU, 0xbd0fe1e53e2be924U, 0x3ac93cb8bdbe5622U,
  0xbd9daa613ca04495U, 0xbd802dd83cb4eb00U, 0x3daa0866be2766c3U, 0x3dca9813be3b142eU,
  0x3d9f52883d51b1a1U, 0xbdc27f57bdaf5eb1U, 0x3dd2940d3e3c69beU, 0x3e1456bf3dbbcc0bU,
  0xbdfc5e5d3ca18761U, 0xba74754abbeb8062U, 0x3d7c2918be47763dU, 0x3ea00300bd14b4f8U,
  0x3d1c61c53e365135U, 0xbe5db5923dfb5d7cU, 0x3e17889c3da8cf44U, 0x3c9470d53e25b87eU,
  0xbdc389433de45a8eU, 0xbd05fb323d9bbb7bU, 0x3d1c7242be075fe3U, 0x3e598980be1371c3U,
  0x3c934c193e0e05a2U, 0xbd3b1652bd03cd76U, 0xbdb6a2abbd104244U, 0x3e01ddf5bd84b9cdU,
  0x3de50c693c536181U, 0x3e139113bdcab6eeU, 0x3e11cbb6bc042260U, 0xbcf218e03da3f0f4U,
  0xbd958db3bcf1512bU, 0x3c91c62cbe13102eU, 0x3d9cea71bd2c6db8U, 0x3d815564bde6647bU,
  0x3e45ec763d7a1868U, 0x3db7047abe2d8c25U, 0x3d112952bde7a81fU, 0x3ba772173de29e9aU,
  0x3cd8f157bd9b417dU, 0x3bf74cdc3cb5c6faU, 0xbde4e4243dfd2577U, 0xbe34007abe189335U,
  0x3edb255b3e19315bU, 0x3d1bea4ebde65c41U, 0xbb1a79443de53be1U, 0xbd8f3296bc11d8b7U,
  0x3d9b1e473e725e6fU, 0x3e028d42bdb32fd8U, 0xbd92793dbd1d5fb4U, 0xbd2d6d39bdf84074U,
  0x3e8f4f9c3ce7d0dbU, 0x3d4fb3cb3b26ef51U, 0xbe2397d43c6af60dU, 0x3d6c73fabd6dca49U,
  0xbcde4ca0bc47a0feU, 0xbdb15b313dd3c16aU, 0x3ca1d653bdc22aa7U, 0x3d124d6b3d0fdec1U,
  0xbd7451873e3b59a3U, 0x3d9d72d83df7acecU, 0x3cc9a516bca53e68U, 0x3e38560a3bbd09cfU,
  0xbd8924dcbe0b16e5U, 0x3e0359e0bdc8b9e4U, 0x3de790d03e0a9591U, 0x3cb815793e429fe2U,
  0xbe893f593db9155cU, 0xbcb143933dfc0b39U, 0x3d8d5e49bdefdf5eU, 0x3e42a0f3bd391855U,
  0xbe19c8d7bdedf7e0U, 0x3dae77edbd91cfa9U, 0x3e9250993d89d004U, 0xbdad0fe4bde7780eU,
  0x3e8610f23d1b8170U, 0x3d0fa88fbe068df2U, 0xbd2af7033d796239U, 0x3d4a3219bc534b2fU,
  0xbce1619b3d5ca62fU, 0x3e93be1c3e416d97U, 0x3dd1f39f3db386c8U, 0x3e5861053b1416c5U,
  0x3e8ccbc8bde76e57U, 0x3d842a54be829b38U, 0xbe80c22c3d5a1deaU, 0xbd836dbb3e7a66d5U,
  0x3b9235633e188f05U, 0x3db0f114bcf604f9U, 0xbdd54a45be4a0076U, 0x3e5361fb3ec4e2faU,
  0x3e006e7abe81a46fU, 0x3e129ebf3d8de769U, 0xbe2d17e6bc55458aU, 0x3d9e105dbd321d30U,
  0xbd9a7fde3d86a372U, 0x3db72a363c4ef4feU, 0x3c47cc893d5fe171U, 0x3e471d2d3ee3f18dU,
  0xbdf0b542bd0a2909U, 0x3d574d58bd6de5eeU, 0xb9f65336be34996bU, 0x3e00d4c7bddbd286U,
  0xbe31660cbdbc0ff8U, 0x3bbbfff8be043439U, 0x3c2070833d8ff832U, 0x3dd0ada33e8f829aU,
  0xbe07bda13d7d0923U, 0xbcb6b157bdadf8e6U, 0x3d51aba1be43dea9U, 0x3e2469bbbd7257cbU,
  0xbe44d268be4277b5U, 0xbdb54216bdf151d7U, 0x3e832558bd9789e4U, 0xbd0ec3233e64c497U,
  0x3da2fdadbdb2f6eeU, 0xbce5871ebd811becU, 0xbe136d553ccab766U, 0xbe09648f3dec06e2U,
  0x3d4002a4bdf36268U, 0x3d27455abdb759c0U, 0xbe459ab5bd8efdfcU, 0x3d7de7653c7cbfbcU,
  0xbd013c263d81b234U, 0x3bc7f199be6ab8f9U, 0xbda638bbbda3f039U, 0xbe1b878abd0afa80U,
  0x3d18df363e1a129bU, 0xbd4ea57b3ce37011U, 0x3d205498be179b5bU, 0x3da87f7f3d84d940U,
  0x3e2eaae23e1bbec8U, 0x3e1a7c11be16d195U, 0x3d982e0b3d2fb0b3U, 0xbe471557bd813716U,
  0xbde103623dbf9107U, 0x3e4c3f843dba1369U, 0xbbf1a0dcbae7ab70U, 0x3e0f52b6bd5ce132U,
  0xbca571ef3e0604c0U, 0x3d3d77f93c0b78edU, 0x3ba61b29bb0bb55aU, 0xbe1bf9583b1fa50eU,
  0x3de47dcb3db956c4U, 0x3d94592f3d302715U, 0xbc86e9923cbf8471U, 0x3e3d52b3bd3c994eU,
  0xbde4e0a4bccd80d1U, 0x3df89ca2be35a5f1U, 0x3dc45c96bd433407U, 0x3d6c2fc93d1b8237U,
  0x3d4e3b31bd10ba90U, 0x3e1e84fdbd384a4aU, 0x3e0c83e1bd8c94deU, 0xbea8d90fbd7ae066U,
  0x3e3e5761bcb9ee36U, 0xbc1bff0f3c1ac898U, 0xbda0746fbd32bfeaU, 0xbe038c77be15e070U,
  0x3dee5c62bc176e78U, 0x3d3830e1bd1c4b07U, 0xbdafa0dcbdc9e313U, 0x3e81f222bdadb656U,
  0x3dd029573c6c31e9U, 0x3b981c39be7797edU, 0xbc71e851bde9cf6cU, 0x3cd15bd9bcfcd19cU,
  0x3d3698e23e2f9403U, 0xbcf818e53def6691U, 0xbc78f333bd4ffd8cU, 0x3dddb38e3935f25aU,
  0xbddf52023a8caeddU, 0x3da16c8fbe4d20f9U, 0x3c3dbcb93d9b64ccU, 0x3e043feb3e168887U,
  0x3dc63b033c13c6b0U, 0xbe1f48d7bcdff95eU, 0x3d8f67c7bdb9143dU, 0x3d320c50bd8a1098U,
  0xbd0fd4ed3e419287U, 0xbd1a73f83cd9faabU, 0x3e1350323db0c602U, 0x3d5ff1763c5a8c7fU,
  0x3d698a3dbdeaca9eU, 0xbdca30373c88b3c0U, 0x3da835df3ddfd5c5U, 0xbe0419f4beceac13U,
  0xbe108c9e3dc76cdcU, 0x3d2a0a2ebcdfde95U, 0x3e10035b3c63630aU, 0x3e1d9f6ebdab97d7U,
  0xbe0afe71be277f36U, 0x3d7dc2f0bdff23fbU, 0x3e28ca3b3d9d856eU, 0xbe2c0efabeb9d121U,
  0x3e4bcadbbd5f41ceU, 0xbd2b8a9a3d8a7a69U, 0xbdf1ed5f3dd3316bU, 0xbe36bdbe3e25f3baU,
  0x3d99a26ebda6a088U, 0xba2bf37c3c6c2c52U, 0x3d69be593d6297e0U, 0x3e93a752bc7530f1U,
  0xbdfd51bdbceacbaaU, 0xbe1d78423ccd65d9U, 0xbdf7c0523b895a1dU, 0xbd132448bdddc373U,
  0xbd4f2319bd87b8fdU, 0xbd428bca3d0406bfU, 0x3d1fe6683d9b7f84U, 0x3dfd328c3e879b06U,
  0xbd88da393d9817e7U, 0xbe6f33ec3dbec1a3U, 0xbd598258be012c7cU, 0x3d2d479cbd1549cdU,
  0xbc904c53bd44f9e7U, 0xbe8b763b3cb6540fU, 0xbda208543e12c80eU, 0xbd6aa6773e589a0eU,
  0xbe431a18bb821a71U, 0x3da5c7003d1c0e72U, 0x3d5c04b4bdfc7665U, 0xbc0c640ebd122424U,
  0xbcd7facebcc72eb5U, 0x3df264f9bc9435eaU, 0x3d0590d73bb5333aU, 0xbe18dbdfbdbf0acdU,
  0x3dbd2f52bcb9b1b3U, 0x3e12cec13dd22a24U, 0x3dfbb5443e03dfc4U, 0x3e3aea4b3d235349U,
  0xbe1fc1b2bd4ba6c8U, 0xbbd3596a3d9cf139U, 0x3dcdf8733e1ad31eU, 0xbd1255ab3d68e652U,
  0x3e8789b13d9840acU, 0xbdac6753bda582d2U, 0xbe2af47e3e2c8acfU, 0x3d8cef213de1a447U,
  0x3da36daf3d625dcfU, 0x3e4da5343de910b8U, 0xbab6340a3df18112U, 0xbdbdb5d0bd80cf0bU,
  0x3e4df79c3cec6358U, 0xbdebe26dbdbc0447U, 0xbe072956bb4bad6dU, 0x3d78bc8abd3b6926U,
  0xbcaae1873da56ac7U, 0xbda07ddabe219e3fU, 0xbbcc5970be8a2457U, 0xbdcce63dbcd7f958U,
  0x3e865a4bbab08baaU, 0xbd5b1f4dbcbde300U, 0xbd181ce93d71a705U, 0xbe085c05bbeb769bU,
  0xbcc3d05a3d58f824U, 0xbdcedb02be07c4aeU, 0xbe872f9fbe8568c5U, 0xbd4b5155bbd2301cU,
  0x3d1090b6bdbf0a92U, 0xbd00a30e3d9729f7U, 0xbe114a893dd6368dU, 0xbd90c1e03e1fed98U,
  0x3d95c69a3c98fe7dU, 0x3d5092adbdc01adeU, 0x3daa7df6bdae5ec1U, 0xbe23a0683cfb88deU,
  0xbddc1a663cc4e327U, 0x3cd630f7bb9cdab3U, 0x3daa4b123e355b21U, 0x3dc034bebd834bc5U,
  0x3e4a0b3f3d7b3f13U, 0xbd822e0a3de32c8eU, 0x3db66ce9bd43c49dU, 0x3d9faaa23c034d5eU,
  0x3e5c263b3cb33cbaU, 0x3e2b8c483c07feb3U, 0x3ce59c09bd70590eU, 0x3ddc3c623d795ec2U,
  0x3d2bc0503e2b43abU, 0x3d7355d73cdd34a3U, 0xbd076bb83d9c394bU, 0x3e1ee1133c985ac3U,
  0x3e80424a3db485daU, 0xbdc7f984bdd026e6U, 0xbeb07a1e3df61c28U, 0xbde2b4fabc0f47a8U,
  0x3cb7b8cc3d4ceec1U, 0x3d4e40efbd714800U, 0xbd84ea99bdbb1a09U, 0x3e54dc963e766ed7U,
  0x3de640ef3d0fc8f3U, 0x3d880387bda46907U, 0xbe7a77c13d5cc00cU, 0xbd07a5b93dbc33baU,
  0x3d4e5f6c3d646bfeU, 0x3e2dcb323db9aaebU, 0x3db6e32cbe83c3b4U, 0x3de9f8dc3eb0d076U,
  0x3db988623e3b8153U, 0x3e04f2babd7eb737U, 0x3d3f5aaa3a10b75bU, 0xbd89da63bcc80590U,
  0x3d2c68ba3d2eb3c5U, 0x3e60cadabd934d5aU, 0x3e6a4ed43bbaa191U, 0x3e41a1343da14662U,
  0xbb36cc37bc27c8a7U, 0x3dcbbbd0bab825bdU, 0xbcc90a0dbdb690fdU, 0x3dee0d4a3bdf3128U,
  0x3c84c71d3e1e1dbdU, 0xbc6858ce3ce8ece8U, 0xbdfeb0753dc64311U, 0xbc7d29973dbfc894U,
  0xbd224ab2bd8f590bU, 0xbe0dccb53d9b1d21U, 0xbbac2e3fbda906abU, 0xbd95b454bd879239U,
  0x3dc74e8ebd592de5U, 0xbd5f68bcbd8ae226U, 0x3c74b00d3e29a5f4U, 0xbd85864c3d5def08U,
  0xbcf988f83d32520eU, 0x3e1dc5a03e118bb6U, 0x3e0c97c1bd1baf35U, 0xbd057ddfbe487fdeU,
  0x3cf68f433e3e6519U, 0x3db819803d514dd5U, 0x3d8c98683e5f6930U, 0xbe3fce18bd90b242U,
  0x3a710a143ec1cfbaU, 0x3e5002623dfadbf7U, 0xbe3f34ab3d85859fU, 0x3db5c4ef3da5aa25U,
  0x3df59c6d3d021747U, 0xbd7b5d903cb02a4bU, 0x3e5afabe3d099a0eU, 0x3c9c4641bc6391c6U,
  0xbe1aadfa3e9e00eeU, 0x3daf508f3e10f4e9U, 0xbde57e77bcf2df59U, 0x3e9686ad3e152ed0U,
  0x3e734a1e3da127bbU, 0xbdc3fffc3ccc6ebaU, 0x3e5b98ae3e5be1eaU, 0x3e462f6d3dae0dc8U,
  0xbe0e92f7bda44ecfU, 0x3d93a35c3e0a14e5U, 0x3d1630023daed83aU, 0x3dae1bca3db6f134U,
  0x3e6c6aeb3e3554d4U, 0xbbe48cea3e1af1e9U, 0xbce6783e3eacf924U, 0x3eb746e13ddb4b84U,
  0xbe775882bdd292ddU, 0xbcaf35c43d718ba8U, 0x3e537fe1bd25f772U, 0xbd13e51bbe73dc2eU,
  0xbe01c83abc57dda3U, 0xbcdcb3c03d612b4dU, 0x3d71450b3e93db4cU, 0xbddc4ed23c79be1aU,
  0xbe14df64bda56902U, 0x3e24cfc83c088148U, 0x3d526c493d843240U, 0x3e149f923cd14e2fU,
  0xbbb2feac3d6451f6U, 0x3d3a52003bc8c744U, 0x3de4862a3d5d7e02U, 0x3e30ebabbd91b209U,
  0xbdab17fa3d78a321U, 0x3d325b2fbca0f4efU, 0x3d6a3afdbd89e784U, 0x3c8e9be33da233bbU,
  0x3d937a7dbe1731c0U, 0xbe994156bcb4f75eU, 0x3ddf1fbdbae6ce3fU, 0x3d9b5efb3cfa4676U,
  0xbe09529fbe4f3b15U, 0xbe1fc92abdd6c32bU, 0xbd75ad50bddf37fbU, 0xbe25a6733cec4e15U,
  0x3ddcc5d23ded0908U, 0xbee541b9bcac2021U, 0xbd3aa6743cbb6aafU, 0x3dc827613de2d768U,
  0xbd83d9f9be7d05cdU, 0xbe8aae32bce34492U, 0xbe5e273cbde87423U, 0xbd33b52dbe2b2988U,
  0x3e26f8563e29a01dU, 0xbedb851ebd8ca32cU, 0xbeb27f04bdee63cdU, 0x3e69da8e3e407996U,
  0x3e0bbb58bbc42322U, 0x3db11303bd56ba3eU, 0x3cbb88d43cec61f4U, 0xbd7efd46bc875b43U,
  0x3c85e02a3d2b6728U, 0xbde1788e3b21ad6fU, 0xbdf14d05bce29b89U, 0x3cc453c0bd36856dU,
  0xbd3c18393e09f5bcU, 0x3d962a94bd48917fU, 0xbcc23b27bd3b600eU, 0x3e093f4ebd7af51eU,
  0xbd9c923b3df33b6dU, 0x3cda890cbd8b1decU, 0x3e074775bdc9554aU, 0x3e23c469bd2e47bbU,
  0xba9d79723d119533U, 0xbe3961063e7bb118U, 0x3e01a8c0bdaa3f5eU, 0x3d5c249fbe3671cdU,
  0x3db139d9bc48c2a4U, 0xbda19e873dbcb47cU, 0x3e021cf13e299ea8U, 0x3e58cc8ebd2fd7aeU,
  0x3e431151be74639fU, 0xbd9349b2be9ed3f1U, 0xbd9a558bbc57af0fU, 0xbe79cc00bd67eb90U,
  0x3d9bacf63d736e46U, 0xbd1cd17ebced0f84U, 0xbe6e192cbe20a8e7U, 0x3dbcfc30be0b1eafU,
  0x3eaa0908be802927U, 0xbe331b1dbeee790eU, 0x3d911976bda3a0b7U, 0x3d51028bbe493190U,
  0xbdd311503c3ee83eU, 0xbe00f563beda27dbU, 0xbef640babe0414d4U, 0x3da53b4dbd59dd18U,
  0x3eccfe3e3d1299c8U, 0xbdd45ed7be13462aU, 0xbd015dbb3b56d1d1U, 0x3d93a648be059123U,
  0x3cbc4acf3dfef207U, 0xbcdcce763d9fe671U, 0x3d858ff1be463bf0U, 0x3d8eb1c9bdc45fd6U,
  0x3ebdb8093d3a9572U, 0xbe03afb2bd78448dU, 0xbe83f3f2bdba4179U, 0xbc3bd037bdd64d9dU,
  0x3a64b5ef3dfc13afU, 0xbe5a58aebcc8baabU, 0xbdf73738bea7bb67U, 0x3d8e05a1be1d8d94U,
  0x3da331423e043c61U, 0x3e4349f2bd85644fU, 0xbe4f30873cdb2c70U, 0xbde7de963d8de59eU,
  0x3c0cf3323dfeffe1U, 0x3dd64ba7bdf5bfcbU, 0x3baee344be988891U, 0x3dc910bf3b0b15e0U,
  0x3e823dc5bbd00595U, 0x3e039e90bc88b621U, 0xbd9ce5c93ddcad6dU, 0x3e120f4cbd022761U,
  0x3dbc15a3bcf53f90U, 0x3e481186bd73f88aU, 0xbb8932cebcb79da8U, 0xbe344a8ebe2d415fU,
  0x3d4c17f5bc86b49cU, 0xbc1cddc3be202142U, 0x3db220fb3dd71d59U, 0x3d0c8a013dc8e9c9U,
  0xbe08243dbd65ded4U, 0x3d57ae12bdee91e0U, 0xbe24a493bd8cb0a4U, 0xbe8416e7be8b2f72U,
  0x3ec8a796bde30b64U, 0xbbd5a7e1be0a75eaU, 0xbe7efaa0bd262d77U, 0x3d972901bc37effdU,
  0x3e25e44c3da43096U, 0x3e2564b33d8fa6a8U, 0xbd6984f5beb62321U, 0x3e17410d3dc7d06fU,
  0x3e27b75e3d0c53b9U, 0xbd103903be3d4328U, 0xbe948ead3e377cb0U, 0xbd4a19963e4bf1fcU,
  0x3e29c0ad3cdce048U, 0x3e0f71983e2a19d3U, 0xbe16608fbdefa5adU, 0x3e0974463e8f3c0fU,
  0x3e364b46be48bea1U, 0xbdfeb13bbce8d51fU, 0xbe059b033e81d013U, 0xbd041f0e3eb6eeb5U,
  0x3e02c147bd84a9cfU, 0xbde99cb43ddf60a4U, 0xbd94c387be9dd90eU, 0x3e0e70523e820cdcU,
  0x3da01d42bcee8a24U, 0x3df620d1bdae4b68U, 0xbcf20c3f3dd66ff7U, 0x3d86f43d3d7cdb50U,
  0x3d6e69083d12c376U, 0xbdcd3e9dbcdd677cU, 0x3d0fbadb3dc91164U, 0x3e2d43ac3e521211U,
  0x3d6a2f51bdac488aU, 0xbe00ed1c3a70ba20U, 0xbca581d73c8170b4U, 0x3e3052893e2851a0U,
  0xbe0015393d4fc076U, 0xbdb3e5e83d291787U, 0x3e9076693e2e8eebU, 0xbceb9b383e7188bbU,
  0x3d8a22273c4d4f6aU, 0xbcd66425be887077U, 0x3e3d7a033df48534U, 0x3d660d9cbda69f55U,
  0xbd9a314ebd90cbd3U, 0xbd0ceeaebe32690eU, 0xbbab20103b8ac699U, 0xbe306ddc3c5feb3fU,
  0x3cb3ece2be0f0f56U, 0xbe6c11823c0de87cU, 0xbd597322bdb14c4eU, 0xbe7f1ea83ddc7f8eU,
  0xbdedc567be862437U, 0xbd58e25a3dbf028aU, 0xbe7e1d33bd5bc80dU, 0xbd570075bd4c180dU,
  0x3d1d2491be9a220bU, 0xbdf90341bd31f1caU, 0xbe73ef87bcc2c2b8U, 0xbe27d16d3d922789U,
  0xbded69d83c288e1dU, 0xbe401c593a0a8af5U, 0xbe2a69d7bc8064f4U, 0xbbddacd7bdaaa336U,
  0x3d0d36efbe659a9dU, 0xbdea9f6d3dc9bc6eU, 0xbe1279d2bcd6e9d4U, 0xbc20fdefbded9ab6U,
  0x3baef6b43dde3af2U, 0xbe3a9d73bd888386U, 0xbd8294e73d90ce5eU, 0x3d60165d3bd34a36U,
  0xbe5126b13b96a96cU, 0x3d92d1b1bdc39794U, 0xbe2e34e2be061f59U, 0xbdfc48d5be04b49dU,
  0xbc9fadc4bbfbb299U, 0xbe1e58ccbd5f9742U, 0x3de41c78bd448be2U, 0x3b96c1743da727d0U,
  0x3dd66e6d3db43c48U, 0xbd2e02dc3dd8b7d9U, 0xbde7a3363e3dd17cU, 0x3d071f493e0c755dU,
  0xbd0c0ba4be2fa7b5U, 0x3dc729ef3c0850d5U, 0xbc986e4fbe0e9840U, 0xbe17c4ab3de0962dU,
  0x3e0680a2bdd1e4bbU, 0xbe828dd4bd3b4994U, 0x3db4bc753db8c4a7U, 0xbe8c1fe73c086168U,
  0xbd93c9c2bd3123daU, 0x3e5434b0bd71ec72U, 0xbd4f79cbbe3fbbc6U, 0x3d654a6c3d5a7b61U,
  0x3e4f48d2be5d6bb5U, 0xbe438019be169728U, 0xbe3e7f55bcf1d257U, 0xbe802dd7be592271U,
  0x3d27b3da3d30eac5U, 0xbe4690153d859d6dU, 0xbe9680f5bd874ebcU, 0x3e19290d3e718b60U,
  0x3b138acdbe6b483cU, 0xbe42b2093cc2e267U, 0xbe271e593dcd1347U, 0xbe1a7d4fbe104522U,
  0xbcd241483c9c6144U, 0xbe1dc87d3d4e918cU, 0xbe05ab9dbe7fb6dbU, 0xbcc8632d3ea8189bU,
  0x3de24465be703abcU, 0xbd0ab1b83c4490e8U, 0xbd8d05253c6a1622U, 0xbe5d88d23e03ec4eU,
  0x3c8e8375bd2365a1U, 0xbdbfaa3e3e957f98U, 0x3d427daabdc10299U, 0xbe06b1e93e32fd79U,
  0x3e4172283d589a63U, 0x3d2ee46c3d416e1fU, 0x3dd564733d2ae6fdU, 0xbe4c55b13d815f15U,
  0x3c7c0d463daa9cd7U, 0x3ddaf150be2be457U, 0x3dc638ee3e8bdb04U, 0x3de55669bdd7f7daU,
  0x3c0e8b18bdd911b7U, 0xbe38b860be7c3ea5U, 0x3dc84e3e3e857eceU, 0xbe58de5b3e12244cU,
  0x3d9922d83bc4c506U, 0x3e2cfb613d38a97cU, 0xbed2b7adbde6cce8U, 0x3e1898eabe9753e2U,
  0xbb8085e9be7ad3faU, 0xbd9363e3bd4eec42U, 0xbdd4a13c3dfaefb7U, 0xbe564935be1730b4U,
  0x3e2f6b2a3e2c21e6U, 0xbc61ba633e33cf67U, 0xbe57f566be80cd7eU, 0x3e1a70d6bd81a582U,
  0x3e03398abd883bbfU, 0x3d02672fbdb80702U, 0xbe5db9803c163e84U, 0xbdeb1e02be89dd67U,
  0x3e1d5a483e7e042fU, 0xbd3de74e3e19a682U, 0xbde19205be09b8b7U, 0x3e94cc02be0261d3U,
  0x3ddcfb74bd2099c5U, 0xbcc72a2abcd222d6U, 0xbe0d4528bdd53d56U, 0xbdd0e0c9be05eca8U,
  0x3e56f2d53e75d578U, 0x3e867e353db85791U, 0xbdfba84dbdc08369U, 0x3e865fd8bddc639fU,
  0x3afc052b3e0f8eccU, 0x3e02b67c3e9bdb9eU, 0x3e39c3dfbba6d3e9U, 0xbd9fa8313e45768aU,
  0xbc5a37f73e2fe987U, 0x3d157c913dceb1d8U, 0x3c251a163eaa3d3aU, 0x3dc514353d3d8e6cU,
  0xbe44fba3be4adec8U, 0xbdc05b3bbccfd328U, 0x3c9fc12dbde4f56aU, 0x3dd1f3c9bd4a282dU,
  0xbe258ecf3d97f30cU, 0xbdc13359bdb716f4U, 0xbe59f2b13d08110dU, 0xbd855d003e5217ccU,
  0xbdf44a00bdf37a3aU, 0xbc88ec843c484e5dU, 0xbde42036bcefd8c1U, 0x3e51103abda11ba7U,
  0xbd0b2ecdbe13602aU, 0xbdf9d6a6be358efcU, 0xbdcea272bddfa203U, 0xbdac41113d41f63dU,
  0xbde17a493b86c424U, 0xbc57b77ebe7906c8U, 0xbe5b5b5bbc83310eU, 0x3d19a80bbd99a515U,
  0xbd1fbab73df19feaU, 0x3cc398fcbcb88111U, 0x3e1680bdbe6861bfU, 0x3e14a11d3e3d627dU,
  0xbd9b68f1bbc00a5cU, 0xbc4af9bf3dd28c9eU, 0xbd09dcd03c433c40U, 0x3c5b1a683e12d2e2U,
  0xbe1f09fabcd02bfcU, 0x3d8d40ac3df613fcU, 0x3e2bf236bd5e2de5U, 0x3d4df9b8bab60c5bU,
  0x3c683fa0be06e4acU, 0xbdd1aa943dfc30b0U, 0xbddbe8323c79b31bU, 0x3e0f4d65be089fa1U,
  0xbcc703793d6d29fbU, 0xbc1af5973d9e311fU, 0xbd82e2793e21d7e4U, 0x3d19fe59bd872d80U,
  0xbe156157be1169f0U, 0xbcab2afd3d313292U, 0x3d89cb6cbd03cfa8U, 0x3e60c4c93beb9bdcU,
  0xbdc280a4bdbd28a1U, 0x3d0662883d63f4f5U, 0x3c43dc313dbf3d2eU, 0x3e0debc5bc9b3a7cU,
  0x3d1e1cd9bdacefd0U, 0xbe016cff3c507285U, 0xbe26de86bda14eddU, 0x3e0fef0b3b7da811U,
  0xbdd64b2dbb96b49aU, 0xba6567403d205bf8U, 0x3e0b48b53c998f75U, 0x3db0e5e13db46b99U,
  0x3e0506f3bd004bccU, 0x3dae616e3ccc5daaU, 0xbe84f476bdcb96a7U, 0xbd68a31b3d59515fU,
  0xbc9d3443be20a525U, 0xbd765f9a3e05bdadU, 0x3e84b273be2a598aU, 0xbe0526bf3e45df08U,
  0xbe02f182be3bb467U, 0x3d68a7ed3e07830aU, 0x3de4ab75bdd3ada6U, 0x3e136370bd253483U,
  0x3caadadebe428cb2U, 0x3dba0760bd4f94deU, 0xbd7d88b53db6b855U, 0xbdda9fb0bd957304U,
  0x3d4b9f6c3dbed2aeU, 0xbd090dcbbe6d273dU, 0x3d4f0f2ebde85b43U, 0x3e59cf5e3db27aa7U,
  0x3d5fe7f9be60522cU, 0x3dc41ec4be0f944eU, 0x3d299dac3cc12307U, 0x3cf6ba333ab76123U,
  0xbd419570bd2a46c6U, 0x3db0eb113e669e03U, 0x3e5867323d0c0b2aU, 0xbcf5810fbd73e816U,
  0x3d530a95bd75c684U, 0x3d2c25473ca1ce1bU, 0x3afd5ebc3e3a629eU, 0xbd58cd4fbb626bbaU,
  0xbd75868e3e9e0d7dU, 0x3e1cddcfbca9a436U, 0x3da2ad0abc66aa01U, 0x3e13175b3c43e45cU,
  0xbca499883ddea1fcU, 0x3daa5552be086ec1U, 0x3d366b383e50628dU, 0x3cc836e13dd4337bU,
  0xbb737c863dca6866U, 0x3e6eb6af3e65f29bU, 0xbd0dbf5fbe4b1723U, 0x3e535139bde0755dU,
  0x3cdaec22bd00f872U, 0x3de6d1a4bdc31477U, 0x3e85eef23e00dce9U, 0x3caecf293df32b6fU,
  0x3d4c97c03e171a9cU, 0x3e5a4e76bb9ee807U, 0x3d63444b3d4705c5U, 0x3904dfea3d8048c7U,
  0xbe1d83113e27575cU, 0x3c5a53f53ce782dbU, 0x3e29b8253e111c2bU, 0x3eab3d3d3e4c3b3fU,
  0x3da11f643d2cfcf5U, 0x3d79d2ae3e0943aaU, 0x3e3f95843ca385d4U, 0xbcb95bcb3c7df45bU,
  0x3a41a8b9bc82d49bU, 0x3e0be18c3df486cdU, 0x3d424eb4bdbe2f36U, 0xbc623e473dd25243U,
  0xbdb1fe6d3dc6b940U, 0x3e3be97b3e5c8e4dU, 0x3e88f726bb632f3aU, 0x3dc70225be4ea4caU,
  0xbd861bfdbd740877U, 0x3cb48dd73d9ccc81U, 0x3d05d5133e180cd0U, 0xbeba350a3de37c4fU,
  0xbcddde393e084c05U, 0x3ba8ddec3d33b38eU, 0xbadd444abc8d41a6U, 0x3e6610d9be311325U,
  0xbe72d213bdc8eb84U, 0x3b8abd253d8aa12bU, 0x3e029d243d90461dU, 0xbeaa93d0be049a2eU,
  0x3d92e4cd3e51e287U, 0xbe648ad53e314837U, 0xbe361de53ca3963aU, 0xbceb7b5bbd9ad48aU,
  0xbd0020bcbd663139U, 0xbe206115bcf9c941U, 0xbd7912543e4430dcU, 0xbdff47dbbd9ab911U,
  0x3d9f4f7fbd871344U, 0xbd3fe1843e0fab97U, 0xbd83dba73e0b7bebU, 0x3d8ce73fbdf936ccU,
  0x3e4cd5313e37a628U, 0xbb6b9ac53e24641eU, 0x3de592573e032916U, 0x3e725ebc3e7cff40U,
  0xbe80b9593e5b7ff6U, 0x3d9ed1d13d9570a3U, 0x3d82388f3da6e7c6U, 0x3dc305c83d1dc5e8U,
  0x3e49082abd739fabU, 0xbb10ee3e3e1e6e2eU, 0x3e12091bbe97ae5dU, 0xbe8ab4eb3e3785bfU,
  0x3c5ae1013e27a677U, 0x3e07b4213dc911dfU, 0x3e40828c3e0dbe28U, 0x3d43cc1b3e0b4bb0U,
  0x3dbf4dcb3ddab2ddU, 0x3e08d2143e39fb8bU, 0x3e24c943bdfcacf3U, 0xbeac6e14be33216bU,
  0x3e8bb16fbd8b79b8U, 0xbdbedc453cf8361cU, 0x3d57a7eb3e1001fdU, 0xbe74e2bd3e3ebbbcU,
  0xbc9d327ebd935371U, 0x3e6264b43d76ec6fU, 0xbe8404dbbcf6a108U, 0xbdc99a1bbe609192U,
  0xbe0421c23d669883U, 0x3d9ee359bccfb010U, 0xbdf543793d9737c4U, 0xbe56cf8d3d7751daU,
  0xbd20dd363ce30102U, 0x3e56c9073e34b9abU, 0xbda47499bd375b57U, 0xbcdabff9bdbdcd21U,
  0x3e22b6993daf2313U, 0x3bf048cf3daf43d3U, 0xbb97324ebd2b2bebU, 0x3cc6c25bbcdc67b0U,
  0x3eb8e4033e672e1cU, 0x3d49a3573dd2ccd8U, 0xbd7431343c7428e7U, 0x3e96d03d3cf8d727U,
  0xbe072d8a3d88328aU, 0x3de88e2d3d4bcf20U, 0x3dae2c063c7bfc5eU, 0x3d3ed28b3b1b3852U,
  0x3d7dbc8abd4198aeU, 0x3cf3823dbccac67cU, 0x3cd730b2bea4ad68U, 0x3c91563c3df7cdd9U,
  0xbddc598f3dad4844U, 0x3d9b99513e490819U, 0x3bd237d43d9d74b9U, 0xbd937daabd3a7266U,
  0x3cf542b53de2d838U, 0x3dd2f07c3d519f37U, 0x3e00ca36bcb3d320U, 0x3dd4d56bbd7ede89U,
  0xbd464ec53d9a04d5U, 0x3d8965913e974d08U, 0x3d3b05c13d55240bU, 0xbe1743a93c6fd8ffU,
  0x3e0a484bbcf204b0U, 0x3e89ec4cbdfd0c9cU, 0xbd4742753dfac54fU, 0xbcb29678bdd584c9U,
  0x3e481525bcf0ddafU, 0x3cc825ec39db6178U, 0x3d3baccfbe100363U, 0xbe3cb0c4be5d019fU,
  0x3d7c1d5d3e54c224U, 0x3d34e73a3d972e53U, 0xbd8f28cbbda31f9cU, 0x3e47c17cbeb48307U,
  0x3daebb34bdc0b0e7U, 0x3e4f901bbda32f6aU, 0x3d95de5b3c027f6aU, 0x3d6e771abd8dcd8bU,
  0xb9fd3b863d89c1c3U, 0x3ea4baeebdc54c75U, 0xbdbbc8cabc98973dU, 0x3df09615bd5c194eU,
  0xbdb398823e6cf4a4U, 0xbd63724a3e10ee74U, 0xbd1b4e7bbd6aee6fU, 0xbdafd67e3d1c1ad3U,
  0x3e1b1c083e63d153U, 0xbdcde080bc76165bU, 0x3dbb8069be005f1eU, 0xbc27909dbde48081U,
  0xbcee2bf53ce3523aU, 0x3d969d083da88058U, 0x393e78253e1b0ef2U, 0x3df0883ebdbafc70U,
  0x3d827bb43cdfa65fU, 0xbdd320ca3d453fb7U, 0x3d933c783d087713U, 0xbe298f49be30ab80U,
  0xbce12e2839d71356U, 0xbe4f48863d6b3367U, 0xbdb895e83da75998U, 0xbd1d70753e6e7db0U,
  0x3cc3aa7e3dc35eb7U, 0xbdbdef1d3e2681e4U, 0xbe0705613b9b3befU, 0xb948df12be078dbcU,
  0xbe110f2dbe1cfb5fU, 0xbe1ef1423ec110f9U, 0x3d692a763c53d3afU, 0x3db2a4de3e29ecceU,
  0xbd4b9dc8be624451U, 0x3aaddab83d5db566U, 0xbd2571c13e30ba6cU, 0x3d48484abd05f786U,
  0xbe855044bc8606f0U, 0xbdd20e3d3cc9d487U, 0x3c6255183d5c889fU, 0x3dc89a963d90e5d8U,
  0xbd9f9236be19f675U, 0xbca859fd3e1f3b83U, 0x3e7d2f7e3d97156aU, 0xbe00ae243e3f2ca2U,
  0xbd8887d2bcd65f56U, 0x3d8339c6bd914869U, 0x3bd39f56be169971U, 0xbd89d283bdab891dU,
  0x3da81fd83d54404aU, 0x3d578e4cbc000788U, 0xbda2d5e6be20e359U, 0xbe76533b3d14e236U,
  0xbd44bc903d238e9bU, 0xbe326e2fbd5d143eU, 0xbda2e9e2bdce9fcbU, 0xbe954568be058e5eU,
  0x3cbfe27d3c8426e5U, 0xbe43d51a3dc8ba71U, 0xbe0c0d95bd510a0dU, 0xbd487737be3cd01dU,
  0xbd411c80be0eda4aU, 0x3e4bc2383d4d8d24U, 0xbce6bebbbdcec763U, 0x3c63d5cc3ddecf62U,
  0xbd00046fbdb9b52aU, 0xbdd27a36be33af1eU, 0x3c42dd3a3d5fd633U, 0x3d4fac24bdc13b0aU,
  0xbdb3baaabb6c7b33U, 0xbcdc9e85bde2588aU, 0xbde433c43cf01368U, 0xbd9ab2d23d65a0e7U,
  0xbe004096bdc3efddU, 0x3c948463be15b396U, 0xbce4b6243dd2f2a1U, 0xbd59ffffbbfbcef5U,
  0xbd0c7915bdafd048U, 0x3d9abc1bbdb40d07U, 0xbd8f57f0bdb9919eU, 0xbc6a2061bd1c4b43U,
  0xbc934dcbbe19ff7cU, 0xba34b2c93b4ef277U, 0x3d9249ba3c15d53aU, 0xbd9f4d593c410c7bU,
  0xbd9636bcbe64b434U, 0xbddc2ce1bbefc7feU, 0x3dcf64b1be21373cU, 0x3d48ad80bd6da0caU,
  0xbe25c1a0bda3e637U, 0xbdaaf123bd2ab714U, 0xbd83659e3ca33ed0U, 0x3db44b5bbd92542eU,
  0x3c5a5290be6f4081U, 0xbd0abdc5be6f2c34U, 0xbe01190d3b8be77dU, 0x3d5c9449be2025b6U,
  0xbdb19776be10b591U, 0x3c1f84383d16364cU, 0x3dc54dfe3c28969dU, 0x3d26637d3e1475d2U,
  0x3db809133c0cace0U, 0xbc88cb7e3c28677cU, 0x3dbc68c1bcfc79e7U, 0x3d293ce23d13d616U,
  0xbdacf1dc3da1ffd0U, 0x3e56fafb3da72178U, 0x3d513f213dd9c244U, 0x3e1e5bd33e836dc2U,
  0xbcfa5b633da59631U, 0x3c8d29a5bc27ad35U, 0xbcbc8482be5d17f8U, 0x3d943bf9bc9022efU,
  0xbd6dd50f3e19c19cU, 0x3dbfb109bd8e8dc1U, 0xbb6ce77d3d9c635aU, 0x3deb065f3d91be3eU,
  0xbd936d863c87d0d6U, 0x3cae87443d4db0d3U, 0x3db0b5c5be2b12f2U, 0xbe09131cbe685348U,
  0xbd365dec3e1ed795U, 0xbd7b3164bd26980cU, 0xbd266047bdd857dfU, 0xbd322e0fbe0b4882U,
  0xbd195ab7be03ed28U, 0x3db0ede43d9fd362U, 0xbcf2ce4d3d29b9a1U, 0x3e1d9e42bdcbd14cU,
  0xbdbc22b9be2d8024U, 0x3e217ab63b75e95eU, 0x3d738ec8be3eb374U, 0xbe62c41d3d997e73U,
  0x3d6921a5bcd0df2dU, 0xbe15dfdd3e0f2166U, 0xbac0cd00bd0e6d97U, 0x3da9bda4bdf02f4bU,
  0xbc1ed2eebe8ec49aU, 0x3cb102d53c9d4eedU, 0x3dc84704bd5ca760U, 0xbe67d6e23d07421eU,
  0x3dd6a44bbd0e52d9U, 0xbe317d833e6df91bU, 0xbde26b553cde8e03U, 0x3d03052bbd73b73cU,
  0xbe4370abbe1116f6U, 0xbd360c95bdafb060U, 0xbdfc15d93e042418U, 0xbdaf70503d9f1e6aU,
  0x3e6c39b8bddcac0cU, 0xbcbcb014bae61fe2U, 0xbd8141cebd00c551U, 0x3da5354a3d81514dU,
  0xbcf710f7bd6b714fU, 0xbd2fda8c3d843617U, 0xbd9847acbdd3ff80U, 0xbe283bab3e0a42bfU,
  0x3dc4bdeb3e0c99f9U, 0x3ea4b39c3cb2fc02U, 0x3e000cc2bab24987U, 0x3db9983d3b3f64abU,
  0xbd470c0d3d537fdfU, 0x3e06d222bd0af527U, 0xbc8a7bc53c892e89U, 0xbe9c989a3de26a1dU,
  0xbd7cba343e69df5bU, 0x3dcd76853e0f1aafU, 0xbe51a18ebc492d45U, 0x3d7161e53cc746a8U,
  0xbd2cbdfebc800beeU, 0xbd1db1373e18b335U, 0x3dfb010fbdbfe6bbU, 0xbe55bb25bd3397a1U,
  0xbe04dc5c3e7a6c55U, 0x3d25e1753deb1504U, 0x3d263c98bcae0932U, 0x3df6203dbb52db67U,
  0x3df45fca3ce060d0U, 0xbdfed0edbdc5cbe7U, 0x3e1dc73bbc59bd26U, 0xbb378805bea0a8c3U,
  0xbd351ea0bd0c6fbbU, 0xbe1f591a3bb96edbU, 0xbe154a32bd583586U, 0xbe5489eabc5f574bU,
  0x3e006cf63d4431f9U, 0xbdad95bb3d9bf35dU, 0xbe00934fbccdde9aU, 0xbd750d1ebe0155b6U,
  0x3e25bd803d88b3feU, 0xbde41229bcaf02e6U, 0x3da36d5b3e7005b8U, 0xbe148e903d416b4eU,
  0x3e25095a3bed8ba4U, 0xbc080685bcb586e9U, 0xbd1704c6371b6590U, 0x3d7e2c41be471482U,
  0x3d2027d6bd8bd07bU, 0xbd6972d4bd90156bU, 0x3d4e57243dc4cbf8U, 0x3dce64223de4a3c1U,
  0x3d516dc73d4a1018U, 0xbc99be6a3e7c09efU, 0x3d29b5aa3dbe1286U, 0xbda1a983bd0e4853U,
  0xbda7bcb73e026fddU, 0x3df6b31b3d229f2eU, 0x3e1402dbbe29f3b8U, 0x3d346f573d62390aU,
  0xbd169d24bcf77cbbU, 0xbdace7393e436041U, 0xbd000ccb3f00be13U, 0x3d8b7b78be7269bcU,
  0xbcf33a633e2d54dcU, 0x3d918d773d6d0cffU, 0x3e152319bd0fa5e4U, 0xbc45cc36bcddc91eU,
